<unk>	0
<s>	0
</s>	0
.	-3.3227
,	-3.43003
▁I	-3.51481
▁the	-3.67124
▁to	-3.7185
▁and	-3.77622
▁a	-3.9122
n	-4.30986
▁of	-4.33037
s	-4.35417
'	-4.50906
▁\	-4.54638
▁that	-4.56183
▁it	-4.58714
▁in	-4.63513
\'	-4.64484
t	-4.69646
▁my	-4.74983
▁is	-4.82737
▁was	-4.86747
▁for	-4.92783
▁me	-4.9825
▁with	-5.03346
▁you	-5.12743
▁on	-5.20861
▁but	-5.26002
▁have	-5.26857
▁her	-5.33101
▁	-5.34666
▁this	-5.35689
▁he	-5.39974
▁she	-5.43845
▁be	-5.46009
▁not	-5.52907
▁we	-5.53367
m	-5.58407
▁(	-5.61902
▁out	-5.64504
▁about	-5.66725
▁just	-5.68228
▁up	-5.68231
▁at	-5.69286
▁as	-5.69742
▁so	-5.71022
▁are	-5.75314
▁like	-5.7749
▁or	-5.77897
▁had	-5.80259
▁"	-5.81874
▁they	-5.87767
▁can	-5.88671
▁""	-5.89924
▁do	-5.91086
▁him	-5.93282
▁all	-5.96243
▁if	-5.9745
▁get	-5.9791
-	-5.99096
▁would	-6.02882
▁from	-6.05502
)	-6.07393
▁time	-6.07773
▁what	-6.0867
▁because	-6.1
▁don	-6.11014
?	-6.13732
▁when	-6.14957
▁one	-6.17133
▁his	-6.19441
▁know	-6.21288
I	-6.2388
▁been	-6.24343
▁really	-6.27791
▁an	-6.28702
▁more	-6.29236
▁there	-6.29821
▁has	-6.31719
▁some	-6.32869
▁people	-6.33816
ve	-6.34399
▁your	-6.35495
▁The	-6.35881
""	-6.37475
▁were	-6.4041
▁other	-6.41228
▁want	-6.41341
▁how	-6.43213
▁i	-6.43507
d	-6.44242
▁them	-6.46086
▁no	-6.4887
/	-6.49852
▁who	-6.50727
▁will	-6.51275
▁back	-6.51886
▁by	-6.52144
▁go	-6.55736
:	-6.58684
▁think	-6.6035
re	-6.61005
▁He	-6.63555
x	-6.63992
▁got	-6.6434
▁We	-6.64792
▁over	-6.65039
▁even	-6.65222
▁into	-6.66352
▁now	-6.67218
▁going	-6.68506
▁our	-6.6866
▁being	-6.6998
ing	-6.70026
▁feel	-6.71101
▁much	-6.71249
▁She	-6.7184
▁only	-6.72271
▁their	-6.72674
▁am	-6.73387
▁It	-6.7456
▁could	-6.76719
▁very	-6.77521
▁make	-6.79029
▁off	-6.7971
▁didn	-6.80523
▁still	-6.80532
▁than	-6.81234
▁things	-6.82003
▁way	-6.82352
▁said	-6.83269
▁see	-6.83349
▁after	-6.83418
▁friends	-6.83436
▁good	-6.8454
.","	-6.85306
▁So	-6.86673
▁any	-6.86951
."	-6.87604
▁never	-6.87843
▁then	-6.89047
.",	-6.89123
▁which	-6.8916
▁day	-6.91588
▁something	-6.92405
▁years	-6.92583
▁work	-6.93913
).	-6.97244
...	-6.97667
▁first	-6.97672
ed	-7.00867
▁should	-7.01107
▁friend	-7.01265
▁before	-7.01595
▁down	-7.01635
▁also	-7.0333
▁told	-7.0409
▁few	-7.04474
▁where	-7.04987
▁did	-7.0654
▁while	-7.07264
▁around	-7.07459
▁relationship	-7.08008
▁My	-7.0821
▁too	-7.08339
▁us	-7.09023
▁say	-7.09109
▁life	-7.10401
▁lot	-7.1041
▁year	-7.10808
\	-7.13786
▁right	-7.16697
ll	-7.17625
▁But	-7.18132
▁went	-7.1843
▁This	-7.18534
▁school	-7.18828
▁thing	-7.18904
▁guy	-7.18984
▁doesn	-7.20862
▁started	-7.22127
▁game	-7.22182
▁two	-7.24009
▁same	-7.24069
▁-	-7.24242
▁take	-7.24657
▁need	-7.25245
▁well	-7.26271
▁most	-7.2657
▁since	-7.26613
▁girl	-7.26639
▁2	-7.28995
▁always	-7.29079
▁anything	-7.29234
▁someone	-7.30207
▁If	-7.30675
!	-7.30708
▁made	-7.31052
▁little	-7.32396
▁pretty	-7.32469
▁together	-7.32928
▁long	-7.33052
▁through	-7.33638
▁again	-7.33735
▁love	-7.34805
▁here	-7.35433
▁getting	-7.35508
▁myself	-7.36229
▁help	-7.37164
▁every	-7.37464
▁point	-7.37593
▁months	-7.37918
2\	-7.37962
▁new	-7.39623
▁And	-7.40365
xe	-7.40936
▁last	-7.41873
▁tell	-7.42791
▁better	-7.43437
▁both	-7.44045
▁home	-7.44496
▁night	-7.4592
▁thought	-7.46152
▁sure	-7.46754
▁A	-7.47061
▁doing	-7.4724
80\	-7.4751
▁away	-7.48069
▁each	-7.48329
▁best	-7.49097
▁having	-7.49663
▁3	-7.50269
▁bad	-7.50389
▁person	-7.50556
▁these	-7.52151
▁why	-7.52176
▁find	-7.53124
▁talk	-7.5372
▁try	-7.56319
▁ago	-7.56534
▁ever	-7.57188
▁actually	-7.57336
▁another	-7.58619
▁trying	-7.59143
▁wanted	-7.59869
▁come	-7.5996
▁They	-7.59971
▁sex	-7.59983
▁let	-7.60848
▁though	-7.61099
▁You	-7.61299
▁end	-7.61444
▁next	-7.61502
▁many	-7.62109
▁shit	-7.62384
▁give	-7.63671
▁those	-7.65393
▁until	-7.65466
▁week	-7.65888
▁house	-7.6808
▁does	-7.68105
▁start	-7.6841
▁asked	-7.6849
▁play	-7.68726
▁own	-7.69638
▁without	-7.69752
▁put	-7.69792
▁enough	-7.7012
▁bit	-7.70214
▁everything	-7.71755
▁job	-7.71795
▁great	-7.72082
▁high	-7.72491
▁money	-7.7259
▁family	-7.72602
▁use	-7.72993
▁hard	-7.7329
▁look	-7.73617
;	-7.737
▁times	-7.73903
▁old	-7.75154
),	-7.75187
ly	-7.75601
▁later	-7.75725
▁talking	-7.76195
▁When	-7.76538
▁came	-7.76607
▁left	-7.78664
▁used	-7.79767
▁days	-7.79802
▁probably	-7.79923
▁nothing	-7.80445
▁different	-7.81645
▁etc	-7.81797
y	-7.81876
▁problem	-7.82105
▁car	-7.82318
▁keep	-7.82546
▁That	-7.83097
▁parents	-7.83122
▁kind	-7.84155
99	-7.84299
▁found	-7.84503
▁What	-7.85474
▁place	-7.85596
▁saying	-7.86129
▁everyone	-7.8615
▁Now	-7.86546
▁else	-7.86826
▁part	-7.87135
▁felt	-7.8864
▁boyfriend	-7.89518
▁5	-7.8963
▁girlfriend	-7.89945
▁anyone	-7.90713
▁decided	-7.91371
▁making	-7.9157
▁couple	-7.91767
▁idea	-7.9207
▁call	-7.92356
▁might	-7.92542
▁happened	-7.92686
▁able	-7.92699
▁past	-7.93288
▁wrong	-7.93625
▁took	-7.93631
▁wasn	-7.93826
▁tried	-7.94208
▁looking	-7.94443
▁says	-7.94471
▁done	-7.94608
▁ask	-7.94759
▁guys	-7.95133
.""	-7.96138
▁reason	-7.96171
.\	-7.96188
▁room	-7.96612
▁4	-7.96736
▁almost	-7.97048
▁once	-7.97101
▁There	-7.97409
▁makes	-7.97413
▁may	-7.9781
▁whole	-7.98328
▁[	-7.98707
▁big	-7.99621
▁live	-8.00465
▁stuff	-8.01141
▁mom	-8.01399
▁games	-8.01722
▁hours	-8.02651
▁weeks	-8.03493
er	-8.03595
▁college	-8.0389
▁stop	-8.04026
▁move	-8.04309
▁story	-8.04922
▁1	-8.07249
▁As	-8.08099
▁already	-8.08574
▁After	-8.08628
▁situation	-8.08686
▁fact	-8.08963
▁man	-8.0968
▁less	-8.10242
▁won	-8.10294
▁its	-8.10447
▁isn	-8.11265
▁month	-8.11706
▁care	-8.11987
▁wants	-8.12531
▁such	-8.1263
r	-8.1305
▁phone	-8.13494
▁least	-8.13744
▁between	-8.14061
e	-8.14074
▁believe	-8.14765
▁working	-8.15099
▁dating	-8.15242
▁break	-8.15355
▁happy	-8.15364
▁far	-8.16186
▁mean	-8.16544
▁mind	-8.17202
▁close	-8.18111
▁understand	-8.18263
▁ex	-8.19173
▁head	-8.19661
▁team	-8.19725
▁maybe	-8.19797
▁feeling	-8.1996
▁completely	-8.20083
▁leave	-8.20218
▁minutes	-8.20249
▁knew	-8.20315
▁10	-8.20487
▁playing	-8.20704
▁fucking	-8.20765
▁thinking	-8.20947
▁called	-8.21056
▁seems	-8.21123
▁Then	-8.21774
▁change	-8.21795
▁ended	-8.21814
▁advice	-8.21958
My	-8.22017
▁dad	-8.22352
▁either	-8.22623
▁fuck	-8.23196
▁post	-8.23267
▁couldn	-8.23373
or	-8.23474
▁gets	-8.23654
▁class	-8.23736
▁saw	-8.24237
▁comes	-8.24903
▁real	-8.24957
▁during	-8.25378
▁kids	-8.25402
▁pay	-8.2602
▁fun	-8.26387
](	-8.26857
▁half	-8.27052
▁6	-8.278
▁world	-8.28167
▁side	-8.28993
▁small	-8.29516
▁deal	-8.30186
▁goes	-8.31185
▁For	-8.31384
▁However	-8.31618
▁hit	-8.31659
▁nice	-8.31907
▁hand	-8.32534
▁face	-8.32827
▁wouldn	-8.32954
▁read	-8.34119
a	-8.34507
▁quite	-8.34697
▁At	-8.34781
▁often	-8.35014
"	-8.3507
▁met	-8.35131
in	-8.35168
▁experience	-8.35362
▁open	-8.35993
and	-8.37015
▁top	-8.37154
S	-8.3722
▁taking	-8.37766
▁full	-8.37879
▁mother	-8.38112
▁broke	-8.38458
▁second	-8.3859
"".	-8.38698
▁feelings	-8.38976
▁course	-8.39257
▁Also	-8.39424
▁'	-8.4023
▁lost	-8.40611
▁against	-8.40776
▁show	-8.41183
▁issues	-8.41803
▁girls	-8.42595
▁question	-8.42718
▁date	-8.42754
▁issue	-8.42934
▁remember	-8.43018
▁run	-8.43195
▁usually	-8.43242
▁group	-8.44922
▁door	-8.45864
▁living	-8.45874
(	-8.45894
▁stay	-8.46411
▁fine	-8.46542
▁three	-8.46644
▁How	-8.47198
▁guess	-8.47276
▁due	-8.47513
▁kid	-8.47527
▁instead	-8.47719
▁seem	-8.4832
▁support	-8.48481
▁free	-8.4869
▁brother	-8.4873
▁today	-8.48732
▁anymore	-8.48773
▁gave	-8.48953
▁basically	-8.49109
▁women	-8.49272
▁under	-8.49589
▁One	-8.4975
▁finally	-8.49807
▁case	-8.49872
▁using	-8.50246
9	-8.50983
▁yet	-8.50988
▁party	-8.51476
▁recently	-8.51843
▁text	-8.52098
th	-8.52102
▁front	-8.52175
▁coming	-8.52379
▁seen	-8.52522
▁level	-8.52781
▁moved	-8.52915
▁asking	-8.52925
▁turn	-8.53376
So	-8.53559
▁happen	-8.53753
▁set	-8.53957
▁sometimes	-8.54037
A	-8.54414
▁No	-8.54683
▁become	-8.54904
i	-8.5506
c	-8.55773
▁buy	-8.56058
▁single	-8.56669
▁Not	-8.56719
▁talked	-8.56867
▁name	-8.56982
▁means	-8.56994
▁telling	-8.57178
▁rather	-8.57277
▁possible	-8.578
▁seeing	-8.58001
The	-8.58106
▁number	-8.5828
▁along	-8.58307
▁needed	-8.58377
?"	-8.58424
▁alone	-8.58854
?""	-8.58869
▁20	-8.58958
▁food	-8.59021
▁short	-8.59207
▁hurt	-8.59252
▁sort	-8.60163
▁bed	-8.60164
▁matter	-8.60752
▁hear	-8.61142
▁water	-8.61254
▁woman	-8.6143
▁problems	-8.61502
▁hour	-8.61558
k	-8.61885
▁looked	-8.61941
▁body	-8.61982
▁morning	-8.6208
▁system	-8.62351
▁turned	-8.62922
the	-8.63251
▁sister	-8.63629
▁huge	-8.64945
▁whatever	-8.6497
▁hate	-8.65052
▁normal	-8.65257
▁wife	-8.65405
▁rest	-8.65912
▁entire	-8.66033
▁amount	-8.66136
▁Well	-8.66832
▁kept	-8.66868
▁outside	-8.66892
▁self	-8.67751
▁spend	-8.67944
▁behind	-8.68346
▁worked	-8.68906
▁drive	-8.68991
▁stupid	-8.69436
▁To	-8.69842
▁gone	-8.70197
▁others	-8.70255
▁damage	-8.70709
▁/	-8.70816
▁All	-8.70888
▁late	-8.71341
?","	-8.71965
▁sleep	-8.72064
▁example	-8.72082
▁needs	-8.72177
▁important	-8.72699
▁soon	-8.7271
▁8	-8.7302
▁conversation	-8.73375
▁drunk	-8.73485
▁early	-8.73604
▁walk	-8.7375
▁company	-8.73988
▁state	-8.74053
▁sense	-8.75201
▁control	-8.75372
▁players	-8.75866
▁heard	-8.75963
▁crazy	-8.76361
▁yourself	-8.76423
▁lose	-8.76627
▁fight	-8.76749
▁weird	-8.77329
▁longer	-8.77621
2	-8.7774
it	-8.78145
▁meet	-8.78381
▁feels	-8.78524
▁played	-8.78673
▁similar	-8.78757
▁simply	-8.78769
M	-8.78894
▁stopped	-8.79264
▁forward	-8.79416
▁bring	-8.80247
▁chance	-8.80283
▁realize	-8.8033
▁weight	-8.80416
▁worse	-8.80433
▁father	-8.80598
▁30	-8.8108
▁pick	-8.81132
▁upset	-8.81442
▁cause	-8.81598
▁serious	-8.81762
▁Just	-8.81889
▁interested	-8.81895
▁mine	-8.82079
▁worth	-8.82189
▁7	-8.82582
▁future	-8.82892
▁computer	-8.82914
This	-8.83044
▁order	-8.83151
▁cool	-8.83279
▁true	-8.83324
▁super	-8.8336
▁spent	-8.83496
▁eventually	-8.83615
▁likely	-8.83708
▁contact	-8.83832
▁married	-8.83923
▁moment	-8.8395
▁wait	-8.83983
▁hell	-8.84955
▁child	-8.84979
▁several	-8.85312
▁extremely	-8.85488
▁moving	-8.85771
▁hang	-8.85816
al	-8.86778
▁social	-8.87374
▁towards	-8.87436
▁eat	-8.87498
▁realized	-8.87504
▁current	-8.87514
▁video	-8.88584
▁power	-8.88634
▁running	-8.88708
▁cut	-8.88851
▁middle	-8.88881
▁haven	-8.88917
▁reddit	-8.88924
nI	-8.88933
▁watch	-8.89082
▁low	-8.8916
▁country	-8.8927
▁line	-8.89386
es	-8.89417
▁kill	-8.89448
▁seemed	-8.89726
▁account	-8.90118
▁giving	-8.90596
▁hope	-8.90677
▁however	-8.90684
▁enjoy	-8.90712
▁large	-8.91217
▁starting	-8.91414
You	-8.91693
▁answer	-8.91803
▁easy	-8.91934
▁given	-8.92175
▁type	-8.92556
which	-8.92699
]	-8.93084
▁E	-8.9312
▁trust	-8.93177
▁age	-8.93439
▁became	-8.93474
▁aren	-8.93685
T	-8.93723
▁especially	-8.93954
▁pain	-8.94124
▁must	-8.94503
▁tells	-8.9495
!""	-8.95285
?",	-8.95537
▁starts	-8.95644
▁awesome	-8.95785
▁happens	-8.9581
▁quickly	-8.96336
g	-8.96433
▁clear	-8.96612
▁sitting	-8.96618
▁certain	-8.96675
▁movie	-8.96772
▁whether	-8.96805
▁15	-8.96985
▁summer	-8.971
▁town	-8.97177
▁amazing	-8.97454
▁works	-8.97539
F	-8.97965
▁On	-8.98112
▁young	-8.98382
▁immediately	-8.98523
▁lives	-8.98569
▁knows	-8.98617
▁gotten	-8.98884
▁card	-8.99021
▁inside	-8.99349
▁100	-8.99478
▁re	-8.99942
▁teacher	-8.99971
▁takes	-9.00431
▁light	-9.00751
▁exactly	-9.00902
It	-9.00944
▁sent	-9.01321
o	-9.01412
▁Do	-9.01507
▁sorry	-9.01812
D	-9.01932
▁looks	-9.02077
▁check	-9.02211
▁Even	-9.02297
▁reading	-9.02421
▁black	-9.02442
▁weekend	-9.02678
ers	-9.02685
▁noticed	-9.02741
▁Or	-9.02788
▁changed	-9.03296
▁across	-9.03409
▁literally	-9.03721
▁area	-9.04021
▁taken	-9.04058
▁okay	-9.04069
▁straight	-9.04156
▁learn	-9.04486
▁definitely	-9.04568
▁plan	-9.04583
▁business	-9.04615
▁absolutely	-9.04662
▁explain	-9.04689
▁information	-9.05087
▁currently	-9.05291
▁store	-9.05339
▁dog	-9.05484
▁anyway	-9.05543
▁SO	-9.05642
▁player	-9.05835
▁watching	-9.05846
▁bought	-9.05875
▁fast	-9.05935
▁heart	-9.06394
▁eyes	-9.06509
▁city	-9.06704
▁apartment	-9.06709
▁please	-9.06735
▁bar	-9.06885
▁trip	-9.07005
▁personal	-9.07178
▁obviously	-9.07214
▁B	-9.07375
▁constantly	-9.07386
▁general	-9.07444
▁ready	-9.07492
▁Reddit	-9.07592
▁dont	-9.07734
▁honestly	-9.07765
▁strong	-9.0796
▁brought	-9.08025
▁lane	-9.08108
we	-9.08156
▁attention	-9.08453
▁US	-9.08463
▁word	-9.08481
▁main	-9.08807
▁walked	-9.0924
▁Edit	-9.09342
▁win	-9.09456
▁sit	-9.09488
▁walking	-9.09563
▁sound	-9.10114
▁share	-9.10237
my	-9.10362
▁Anyway	-9.10574
▁loved	-9.10597
▁reasons	-9.10654
▁build	-9.10725
▁based	-9.10914
▁sexual	-9.10963
▁words	-9.11068
▁community	-9.11187
▁depression	-9.11225
▁distance	-9.11286
▁figure	-9.11415
▁leaving	-9.11434
3	-9.11694
▁children	-9.12147
f	-9.12191
▁smoke	-9.12206
▁S	-9.12404
▁yes	-9.12706
▁un	-9.12773
▁continue	-9.12889
▁himself	-9.13292
▁husband	-9.13332
▁health	-9.13458
▁interest	-9.13767
he	-9.13833
▁common	-9.13834
▁mostly	-9.13874
▁cannot	-9.13976
▁agree	-9.14237
▁per	-9.14413
▁questions	-9.14744
","	-9.15018
▁older	-9.15668
▁drink	-9.15693
▁bathroom	-9.15955
▁police	-9.16109
▁within	-9.16139
▁hold	-9.16159
to	-9.16224
▁near	-9.1626
▁online	-9.16749
▁mid	-9.17266
▁internet	-9.17389
▁Any	-9.17429
▁difficult	-9.1747
▁hands	-9.17605
▁C	-9.17883
▁government	-9.18005
▁Thanks	-9.1805
▁paid	-9.18387
▁decide	-9.18415
not	-9.18474
▁music	-9.18581
▁student	-9.18664
▁fix	-9.18723
▁angry	-9.18872
▁scared	-9.18907
▁opinion	-9.19053
▁ran	-9.19277
▁waiting	-9.19379
▁major	-9.19389
▁worried	-9.19503
▁liked	-9.19618
▁lived	-9.19701
P	-9.19899
▁stand	-9.20342
▁relationships	-9.20475
▁afraid	-9.20494
▁hanging	-9.20659
▁fucked	-9.20724
▁worst	-9.20923
▁fall	-9.20966
▁im	-9.21216
▁kinda	-9.21798
▁lack	-9.21829
▁themselves	-9.21941
▁ass	-9.21945
▁perfect	-9.22054
▁clean	-9.22201
▁Her	-9.22443
▁Some	-9.22635
▁While	-9.22766
▁random	-9.22876
▁space	-9.22912
▁totally	-9.2313
▁eating	-9.23176
",	-9.23187
▁Since	-9.23286
▁hot	-9.23436
▁grade	-9.23456
▁Should	-9.23514
▁act	-9.23573
▁floor	-9.23596
▁blood	-9.2368
▁brain	-9.23811
b	-9.23888
▁human	-9.23992
C	-9.24097
▁above	-9.24133
▁white	-9.2415
▁supposed	-9.24247
▁easily	-9.2427
▁handle	-9.24771
able	-9.24811
▁His	-9.24846
v	-9.25073
▁generally	-9.25244
▁cost	-9.25407
▁mad	-9.25531
▁awkward	-9.25538
▁test	-9.25618
▁terrible	-9.25651
▁history	-9.25694
▁thinks	-9.25927
▁non	-9.2597
▁drinking	-9.26436
▁death	-9.26584
▁broken	-9.26603
no	-9.2662
▁ways	-9.26698
as	-9.26774
▁9	-9.27041
▁began	-9.27049
▁add	-9.27121
on	-9.27483
▁message	-9.27576
▁unless	-9.27715
▁stuck	-9.27928
xa	-9.28102
▁bunch	-9.28172
1	-9.28197
▁extra	-9.28289
▁dinner	-9.28432
▁difference	-9.28619
▁Why	-9.2892
▁process	-9.28993
We	-9.29153
▁public	-9.29393
▁die	-9.29762
▁position	-9.29768
▁dead	-9.29819
▁notice	-9.2991
▁picture	-9.30469
▁caught	-9.30469
▁gonna	-9.30504
▁higher	-9.30552
p	-9.30577
▁mentioned	-9.30856
▁god	-9.30929
▁sick	-9.31065
▁marriage	-9.31109
▁funny	-9.31234
▁smoking	-9.31338
▁driving	-9.31408
▁known	-9.31539
▁argument	-9.31564
▁:	-9.31704
▁speak	-9.31742
▁decision	-9.31749
▁paying	-9.32041
▁mention	-9.32183
▁EDIT	-9.32307
▁local	-9.3258
▁hair	-9.32618
▁physical	-9.32625
▁dick	-9.32683
▁shouldn	-9.32769
▁pull	-9.32817
▁12	-9.32967
▁trouble	-9.33053
▁consider	-9.33093
▁Me	-9.3317
▁involved	-9.33217
▁office	-9.3355
▁weed	-9.33552
▁P	-9.336
▁Don	-9.33711
▁passed	-9.33803
▁road	-9.34108
If	-9.34209
▁red	-9.34221
l	-9.34452
▁ones	-9.34615
▁wish	-9.34675
▁step	-9.34695
▁female	-9.34809
▁fell	-9.34859
▁herself	-9.34912
4	-9.35096
▁pulled	-9.35418
▁God	-9.35767
▁sad	-9.35779
▁comment	-9.35798
▁nearly	-9.35929
▁actual	-9.36035
▁expect	-9.36079
▁itself	-9.36115
▁losing	-9.36168
▁birthday	-9.36341
▁gives	-9.3643
up	-9.36452
▁fire	-9.36551
▁knowing	-9.36735
▁seconds	-9.36791
▁doctor	-9.36912
"",	-9.3706
if	-9.37093
▁term	-9.37123
▁helped	-9.37135
▁except	-9.3714
xc	-9.37418
▁anxiety	-9.37445
▁shitty	-9.37458
▁four	-9.37459
you	-9.37489
▁turns	-9.37558
▁confused	-9.37648
▁wall	-9.37816
▁male	-9.37869
▁fat	-9.37964
▁Maybe	-9.38009
▁poor	-9.38029
▁comfortable	-9.38122
▁period	-9.38572
▁book	-9.38609
▁baby	-9.38738
▁seriously	-9.38773
▁response	-9.38819
ic	-9.38909
▁fairly	-9.38923
▁save	-9.38963
▁putting	-9.39089
▁gf	-9.39137
▁worry	-9.392
▁simple	-9.3921
▁drop	-9.39228
▁law	-9.39418
she	-9.39535
▁honest	-9.3958
▁tired	-9.3964
▁multiple	-9.39664
▁Because	-9.3974
▁figured	-9.39868
▁shot	-9.40149
▁force	-9.40309
▁building	-9.40405
▁complete	-9.40411
▁Here	-9.40656
▁throw	-9.40683
▁T	-9.40894
▁roommate	-9.40915
▁further	-9.40974
▁thoughts	-9.41192
▁agreed	-9.41226
▁ground	-9.4125
▁wondering	-9.41378
▁ok	-9.41392
▁F	-9.41543
Hey	-9.41741
am	-9.41795
▁avoid	-9.41971
▁pissed	-9.4214
▁lower	-9.42303
▁fear	-9.42525
▁eye	-9.42625
▁credit	-9.4269
ness	-9.42788
▁apart	-9.42963
▁M	-9.42976
▁classes	-9.43417
▁porn	-9.43445
▁wanting	-9.43511
▁religion	-9.43513
▁sounds	-9.43546
B	-9.43686
▁interesting	-9.43812
▁died	-9.43909
▁willing	-9.44031
▁enemy	-9.44102
▁choice	-9.44112
▁onto	-9.44217
▁send	-9.44246
▁incredibly	-9.4427
▁sat	-9.44349
▁spending	-9.44791
▁50	-9.44814
▁crying	-9.44863
▁D	-9.44892
▁People	-9.4507
▁meant	-9.45187
▁learned	-9.45309
▁twice	-9.45487
▁average	-9.45668
▁calls	-9.45708
▁apparently	-9.46031
▁calling	-9.46109
▁horrible	-9.46223
▁dream	-9.46269
▁minute	-9.46397
▁friendship	-9.46652
▁Most	-9.46675
▁damn	-9.46856
▁hospital	-9.46913
▁focus	-9.46937
▁truly	-9.47054
▁beginning	-9.47191
u	-9.47378
▁drugs	-9.47421
▁table	-9.47483
▁tend	-9.47692
▁busy	-9.47939
▁partner	-9.48007
▁comments	-9.48232
▁visit	-9.48289
▁air	-9.486
▁speed	-9.48618
▁although	-9.48781
▁total	-9.48785
▁respect	-9.48795
▁--	-9.48944
▁somehow	-9.49089
E	-9.4931
▁list	-9.49368
▁service	-9.49522
▁slow	-9.49588
▁effort	-9.49679
▁Like	-9.49849
▁easier	-9.49879
▁feet	-9.49966
▁18	-9.50035
▁fit	-9.50071
▁asks	-9.50301
this	-9.50527
▁emotional	-9.50533
▁happening	-9.50604
▁result	-9.50705
▁boss	-9.50739
▁allowed	-9.50784
▁stories	-9.50839
▁depressed	-9.50934
▁ability	-9.51136
▁push	-9.51149
▁Our	-9.51344
▁gym	-9.5147
--	-9.51654
5	-9.51686
▁despite	-9.52007
▁fair	-9.52043
▁dated	-9.52299
▁picked	-9.52351
▁university	-9.52499
▁view	-9.52763
▁degree	-9.53038
▁With	-9.53175
▁attack	-9.53422
▁barely	-9.53443
▁street	-9.53517
▁safe	-9.53555
▁slowly	-9.53944
▁Am	-9.5418
▁pictures	-9.5425
▁pass	-9.54486
▁cold	-9.54556
▁plans	-9.54588
▁paper	-9.54626
▁mouth	-9.54859
▁specific	-9.54874
▁cards	-9.54911
▁asshole	-9.55399
▁window	-9.55443
▁fault	-9.55444
▁loves	-9.55616
▁lead	-9.55808
▁gay	-9.55815
▁miss	-9.55846
▁jobs	-9.5594
▁meeting	-9.56
but	-9.56104
▁decent	-9.56165
ish	-9.56194
▁imagine	-9.56286
▁whenever	-9.56322
at	-9.56357
▁clearly	-9.56473
▁terms	-9.56493
▁finish	-9.56558
▁religious	-9.56627
▁suddenly	-9.56752
▁drug	-9.56835
▁W	-9.57077
▁uncomfortable	-9.57166
▁healthy	-9.57295
▁attractive	-9.57314
▁previous	-9.57326
▁gold	-9.57333
▁changes	-9.574
▁lady	-9.57425
▁piece	-9.57518
K	-9.57668
▁follow	-9.57899
▁somewhere	-9.57906
▁co	-9.58099
▁daughter	-9.58159
▁value	-9.58352
like	-9.58379
▁PC	-9.58449
▁First	-9.58528
▁R	-9.58557
▁five	-9.58624
▁write	-9.58726
▁effect	-9.58909
▁following	-9.59013
▁carry	-9.59059
▁pre	-9.59068
▁dude	-9.59232
▁students	-9.5926
▁mess	-9.59698
▁items	-9.59754
▁bitch	-9.59814
▁mistake	-9.5982
▁younger	-9.59849
▁finished	-9.5988
▁breaking	-9.60028
▁bus	-9.60031
▁deep	-9.60171
▁lunch	-9.60176
▁manager	-9.6019
▁dropped	-9.60246
▁note	-9.60305
▁finding	-9.60309
▁joke	-9.60345
is	-9.6035
▁price	-9.60474
▁cheating	-9.60557
▁content	-9.60614
▁possibly	-9.60684
No	-9.60955
G	-9.61258
▁option	-9.613
▁program	-9.61754
▁These	-9.61795
▁forget	-9.61898
▁background	-9.61924
▁assume	-9.62166
▁energy	-9.62236
▁blue	-9.62302
▁email	-9.62801
▁Of	-9.62814
▁gun	-9.62818
▁holding	-9.62902
▁quit	-9.62942
▁allow	-9.63023
▁offer	-9.63091
▁showed	-9.63197
ie	-9.63235
▁lots	-9.63316
▁sleeping	-9.63363
▁hasn	-9.63392
▁war	-9.635
▁shows	-9.63513
▁obvious	-9.63739
h	-9.63838
▁cheated	-9.6392
▁standing	-9.63932
▁Once	-9.63981
▁character	-9.64364
▁third	-9.64467
▁stayed	-9.64486
▁quick	-9.64489
▁accept	-9.6453
▁shut	-9.6458
▁loss	-9.64952
▁understanding	-9.65094
▁By	-9.6511
▁bag	-9.65175
What	-9.65436
▁ideas	-9.65457
▁special	-9.65534
▁beautiful	-9.65583
▁upon	-9.65655
▁managed	-9.65719
▁screen	-9.6584
▁touch	-9.65948
When	-9.65978
▁woke	-9.66039
▁r	-9.66072
▁texts	-9.66095
▁OP	-9.66401
▁cat	-9.66402
▁choose	-9.66585
▁skin	-9.66942
▁Every	-9.67069
▁field	-9.67115
▁chat	-9.6715
▁boy	-9.67454
▁Facebook	-9.67507
man	-9.67747
▁form	-9.67834
▁somewhat	-9.67864
▁considered	-9.67892
▁negative	-9.67896
▁killed	-9.67907
R	-9.6796
▁caused	-9.68088
▁appreciate	-9.6821
▁Let	-9.68233
▁posted	-9.6832
▁Yes	-9.68362
▁behavior	-9.68584
▁box	-9.68642
▁earlier	-9.68691
▁texting	-9.68766
▁thread	-9.68805
▁G	-9.6882
▁missing	-9.68841
▁texted	-9.68985
▁sweet	-9.69304
▁weren	-9.69347
▁bf	-9.69354
▁writing	-9.69374
▁begin	-9.69376
▁ride	-9.69599
▁mental	-9.69659
▁fully	-9.69672
▁cops	-9.69672
▁TV	-9.6972
W	-9.69868
▁slightly	-9.69871
▁afford	-9.69894
▁About	-9.69937
▁majority	-9.70079
▁particular	-9.70249
▁potential	-9.70311
▁stick	-9.70347
▁closer	-9.70395
▁original	-9.70506
▁study	-9.7058
▁messages	-9.70591
▁points	-9.70648
▁Fast	-9.7075
▁40	-9.70776
▁return	-9.70808
▁risk	-9.71172
▁clothes	-9.71195
▁including	-9.71294
▁yesterday	-9.71308
▁yeah	-9.71435
▁aware	-9.71474
▁laugh	-9.71495
▁smart	-9.71571
▁buying	-9.71587
▁blame	-9.71653
▁pressure	-9.71669
▁knowledge	-9.717
Hi	-9.71708
▁science	-9.71736
▁evidence	-9.71931
▁positive	-9.72121
▁NOT	-9.72149
▁wake	-9.72471
▁biggest	-9.72601
▁counter	-9.72655
▁Anyways	-9.7271
▁25	-9.72721
▁bullshit	-9.72834
▁harder	-9.72838
▁places	-9.72839
▁American	-9.72867
▁physically	-9.72963
▁listen	-9.7297
▁beat	-9.73228
▁match	-9.7326
▁Last	-9.73446
▁movies	-9.73538
▁otherwise	-9.73724
▁emotionally	-9.73758
▁society	-9.73809
us	-9.73818
▁truth	-9.7399
▁16	-9.74003
▁Can	-9.74075
▁staying	-9.74129
▁gaming	-9.74193
▁stress	-9.74301
▁Which	-9.74444
▁career	-9.74607
▁e	-9.74712
▁sign	-9.74867
▁legal	-9.74894
▁insurance	-9.74914
▁sub	-9.75242
▁range	-9.75255
▁Oh	-9.75315
▁considering	-9.75337
▁language	-9.75387
▁rent	-9.75466
▁hung	-9.75513
▁lie	-9.75531
▁spot	-9.75717
▁fighting	-9.75778
▁base	-9.75812
▁planning	-9.75846
▁mutual	-9.75928
▁regular	-9.75939
▁none	-9.76011
▁size	-9.76011
▁create	-9.76183
▁entirely	-9.76266
▁wedding	-9.76284
▁gas	-9.76526
▁19	-9.76618
for	-9.76636
▁excited	-9.76694
▁ahead	-9.76968
Well	-9.76989
ity	-9.77047
▁page	-9.77116
▁hoping	-9.77234
▁thanks	-9.77301
▁directly	-9.77347
▁crush	-9.77469
▁alcohol	-9.77562
▁keeps	-9.77605
▁Please	-9.77673
▁opened	-9.77697
▁catch	-9.77727
▁voice	-9.77739
▁Basically	-9.77898
▁church	-9.77921
▁laptop	-9.77966
▁keeping	-9.77972
6	-9.78132
▁acting	-9.78211
O	-9.78315
▁item	-9.78387
▁laughing	-9.78661
▁expensive	-9.78718
▁helping	-9.78753
▁scene	-9.78905
so	-9.78944
▁K	-9.79138
▁quality	-9.79224
▁parts	-9.79374
▁personally	-9.79376
▁pants	-9.79482
▁forced	-9.79527
▁research	-9.7974
▁correct	-9.79771
▁sucks	-9.798
▁English	-9.80008
▁favorite	-9.80056
▁rate	-9.80142
▁approach	-9.80184
!"	-9.80352
▁foot	-9.8044
▁Sorry	-9.80478
▁11	-9.80479
▁normally	-9.80616
▁missed	-9.80667
▁cop	-9.80734
▁posts	-9.80993
▁grow	-9.81034
▁attracted	-9.81112
▁shower	-9.81286
▁reality	-9.81436
less	-9.81463
▁exist	-9.81569
▁doubt	-9.81603
w	-9.81707
▁skill	-9.81874
▁awful	-9.82066
▁lying	-9.82225
▁semester	-9.8225
▁media	-9.82358
▁reach	-9.82664
▁throughout	-9.82725
▁medical	-9.82761
▁facebook	-9.82804
▁split	-9.82854
▁THE	-9.82949
▁appreciated	-9.82971
▁actions	-9.8306
L	-9.83063
▁From	-9.83245
that	-9.83273
one	-9.83326
▁admit	-9.83328
▁rules	-9.83386
▁daily	-9.83427
▁action	-9.83433
▁America	-9.83521
▁expected	-9.83572
time	-9.83597
▁subject	-9.83605
▁numbers	-9.83719
out	-9.83732
▁events	-9.83879
▁arm	-9.83883
▁market	-9.84044
▁coffee	-9.84321
▁key	-9.84361
▁opportunity	-9.84379
▁kiss	-9.84416
▁debt	-9.84435
▁basic	-9.84441
▁available	-9.84447
▁sell	-9.84482
▁becoming	-9.845
▁respond	-9.84617
▁Your	-9.84652
▁attempt	-9.84756
Don	-9.85018
▁offered	-9.85019
▁forever	-9.85022
▁explained	-9.85027
▁Christmas	-9.85091
V	-9.85121
▁massive	-9.85307
▁ridiculous	-9.85368
▁everyday	-9.85371
▁fan	-9.85436
▁jump	-9.85543
▁role	-9.85587
▁access	-9.85673
▁grew	-9.85676
Oh	-9.85716
▁site	-9.85737
▁details	-9.8575
▁anywhere	-9.85767
ist	-9.859
▁six	-9.85983
▁watched	-9.86177
▁continued	-9.86192
▁learning	-9.86344
se	-9.86392
▁dumb	-9.86561
▁ranked	-9.86573
▁received	-9.86607
▁train	-9.86645
▁wearing	-9.86647
▁ignore	-9.86659
There	-9.86679
▁provide	-9.86807
▁threw	-9.86915
▁Eventually	-9.87236
▁asleep	-9.8724
▁final	-9.87285
ur	-9.87299
▁improve	-9.87613
▁crap	-9.87618
▁nor	-9.87782
▁grab	-9.87816
▁nobody	-9.87935
▁Thank	-9.88071
▁dark	-9.88274
▁certainly	-9.88337
▁held	-9.8837
▁bottom	-9.88372
Not	-9.88473
▁heavy	-9.88649
▁exact	-9.88861
▁present	-9.88968
▁slept	-9.89113
▁impossible	-9.89176
▁champion	-9.89581
▁buddy	-9.89729
▁lines	-9.89898
▁increase	-9.89961
▁goal	-9.90037
▁suck	-9.90044
▁GF	-9.90124
▁deck	-9.90155
ism	-9.90157
▁b	-9.9034
N	-9.9039
▁jealous	-9.90423
en	-9.90603
▁event	-9.90836
▁invited	-9.90871
▁pro	-9.90899
▁education	-9.90939
▁related	-9.9094
▁14	-9.91016
▁Sometimes	-9.91018
▁experienced	-9.91086
▁screaming	-9.91115
▁military	-9.91156
▁New	-9.91183
▁leaves	-9.91232
▁90	-9.91246
▁opposite	-9.91277
▁luck	-9.91297
▁culture	-9.9139
▁essentially	-9.91429
▁friendly	-9.91602
▁didnt	-9.91648
▁bother	-9.91876
▁Before	-9.91968
▁security	-9.91978
who	-9.91985
what	-9.9202
▁board	-9.92332
▁data	-9.92358
▁pregnant	-9.92382
▁perfectly	-9.92394
▁built	-9.92399
▁gain	-9.92431
▁situations	-9.92449
▁forgot	-9.9245
▁title	-9.92486
▁thank	-9.92512
▁Everyone	-9.92595
▁bottle	-9.92633
▁shop	-9.92636
▁Re	-9.92735
▁loud	-9.928
▁popular	-9.9282
▁bigger	-9.92881
▁strange	-9.92933
▁idiot	-9.92961
▁lately	-9.93009
▁toilet	-9.9305
▁cover	-9.93071
▁cheap	-9.93133
▁guilty	-9.93238
▁likes	-9.93238
▁perspective	-9.9326
ion	-9.93268
le	-9.93325
▁options	-9.93371
▁couch	-9.93398
▁experiences	-9.93416
▁season	-9.93439
rs	-9.93465
▁topic	-9.93527
▁Does	-9.93733
▁skills	-9.93791
▁bedroom	-9.93796
▁communication	-9.93846
▁income	-9.93863
▁truck	-9.94032
▁pool	-9.94095
▁books	-9.94342
!","	-9.94372
▁drinks	-9.94398
▁Riot	-9.94426
▁via	-9.94496
▁miles	-9.94545
▁everywhere	-9.94577
▁court	-9.94654
▁ball	-9.94723
▁de	-9.94844
▁report	-9.9487
ar	-9.94925
▁training	-9.95132
▁beer	-9.95329
▁60	-9.9533
▁nature	-9.95496
▁advantage	-9.95635
▁overall	-9.95671
▁discussion	-9.95711
ment	-9.95809
▁news	-9.95848
ation	-9.96043
▁wrote	-9.96206
▁growing	-9.96208
▁nervous	-9.96226
▁recent	-9.96304
▁tomorrow	-9.9635
▁effects	-9.9649
▁connection	-9.96521
▁U	-9.96582
▁individual	-9.96614
▁wear	-9.96658
▁cute	-9.96862
▁IT	-9.96866
▁vs	-9.96972
▁abuse	-9.96996
▁jungle	-9.97032
▁private	-9.97114
me	-9.9712
▁excuse	-9.97242
▁dealing	-9.97284
▁companies	-9.9729
an	-9.97401
▁killing	-9.97426
▁driver	-9.97529
▁usual	-9.97555
▁dates	-9.97693
▁created	-9.97702
▁adult	-9.97784
▁various	-9.97871
▁states	-9.97909
▁charge	-9.97965
▁results	-9.98095
▁concerned	-9.98141
▁proceeded	-9.98227
▁wonder	-9.98287
▁cousin	-9.98311
▁treat	-9.98333
▁customer	-9.98383
▁followed	-9.98447
▁Another	-9.98799
▁art	-9.98867
▁reply	-9.98873
▁chest	-9.98905
▁beyond	-9.99058
▁ends	-9.99278
▁becomes	-9.99283
▁plenty	-9.99423
▁annoying	-9.99466
▁kicked	-9.99504
▁During	-9.99622
▁showing	-9.99724
▁compared	-9.9996
▁practice	-10.0009
▁neither	-10.001
▁stomach	-10.001
▁dollars	-10.0023
▁subreddit	-10.0039
▁rarely	-10.0043
▁kitchen	-10.0055
un	-10.0067
▁failed	-10.0085
ling	-10.0087
▁YOU	-10.0093
▁champions	-10.0123
letting	-10.0144
▁helps	-10.0146
▁cry	-10.0146
▁Being	-10.0147
▁bank	-10.0148
▁fights	-10.0175
do	-10.0177
▁teams	-10.0186
Y	-10.0188
▁lucky	-10.0197
▁wonderful	-10.0203
▁conversations	-10.0212
▁causing	-10.0214
▁abusive	-10.0223
▁17	-10.0231
▁...	-10.025
▁yelling	-10.0259
▁born	-10.0262
▁claim	-10.0267
▁flat	-10.0267
▁series	-10.0268
▁cars	-10.027
▁added	-10.0286
rd	-10.032
be	-10.033
ies	-10.0349
In	-10.035
▁cash	-10.0354
▁argue	-10.0357
▁falling	-10.0365
▁bill	-10.0369
▁properly	-10.038
all	-10.0392
▁Everything	-10.0396
▁edit	-10.0401
▁ten	-10.0402
▁faster	-10.0408
▁anti	-10.0411
▁race	-10.0426
▁source	-10.0426
▁financial	-10.0428
▁0	-10.0432
▁thus	-10.0434
▁speaking	-10.0434
▁24	-10.0435
▁standard	-10.0438
▁pushing	-10.0453
▁drove	-10.0462
!",	-10.0463
▁round	-10.047
▁active	-10.0472
▁double	-10.0472
▁led	-10.0476
▁V	-10.048
▁tax	-10.0484
▁direction	-10.0486
▁park	-10.0508
▁article	-10.0517
▁tries	-10.0517
just	-10.0523
▁server	-10.0532
▁link	-10.0565
▁diet	-10.0565
▁AND	-10.0569
▁costs	-10.0574
▁H	-10.0574
▁casual	-10.058
▁Turn	-10.0583
▁blah	-10.0584
▁confidence	-10.0585
▁seat	-10.0587
▁laws	-10.0589
▁track	-10.0592
▁treated	-10.0598
▁13	-10.0609
▁tips	-10.0611
▁quiet	-10.0614
▁meaning	-10.0614
▁separate	-10.0625
How	-10.0637
▁tonight	-10.0649
don	-10.0651
▁cases	-10.0667
▁smell	-10.0668
3\	-10.0672
▁corner	-10.0688
▁solid	-10.0702
▁planned	-10.0709
▁empty	-10.071
▁till	-10.0718
go	-10.0718
▁changing	-10.0728
▁Things	-10.073
▁balance	-10.0736
▁ring	-10.0743
▁info	-10.0743
▁cancer	-10.0746
▁closed	-10.075
▁lazy	-10.075
▁parties	-10.077
▁odd	-10.0772
:\	-10.0782
▁saved	-10.0782
▁style	-10.0782
▁birth	-10.0791
▁personality	-10.0792
▁reaction	-10.0799
▁levels	-10.0811
▁Apparently	-10.0823
▁21	-10.0835
▁hitting	-10.0843
▁travel	-10.0848
▁tank	-10.0861
▁necessary	-10.0864
▁land	-10.0877
▁constant	-10.0884
▁accepted	-10.0893
▁calm	-10.09
▁surprised	-10.0903
As	-10.092
▁ice	-10.0925
▁passive	-10.0942
▁naked	-10.0946
▁apologize	-10.0948
▁covered	-10.0957
▁version	-10.096
of	-10.0968
▁surprise	-10.0972
▁countries	-10.0994
▁desk	-10.0999
▁kick	-10.101
▁address	-10.1013
▁J	-10.1016
▁sudden	-10.1023
▁sexually	-10.1024
▁machine	-10.1024
He	-10.1031
▁plus	-10.1033
▁deserve	-10.1042
▁groups	-10.1046
▁leg	-10.1046
▁romantic	-10.1047
▁evening	-10.1057
▁ticket	-10.1066
0	-10.1079
▁vacation	-10.1083
▁waste	-10.1093
▁league	-10.1101
▁pushed	-10.1102
8	-10.1121
▁raised	-10.1124
▁below	-10.113
▁prove	-10.1133
▁hurts	-10.1136
▁natural	-10.1143
▁emotions	-10.115
▁website	-10.1168
▁mode	-10.1172
▁restaurant	-10.1176
▁written	-10.1181
▁Friday	-10.1187
▁suggest	-10.1191
▁project	-10.1192
they	-10.12
▁solution	-10.1204
▁posting	-10.1208
▁manage	-10.1214
▁regret	-10.1229
▁relatively	-10.1232
▁x	-10.1232
▁breakup	-10.1233
▁shift	-10.1234
ting	-10.1235
▁replied	-10.1237
▁particularly	-10.1237
▁regardless	-10.1247
▁opinions	-10.1266
▁Finally	-10.1275
est	-10.129
▁kills	-10.1301
▁O	-10.1311
▁tough	-10.1316
▁perhaps	-10.1317
▁Sure	-10.1319
▁senior	-10.1331
▁turning	-10.134
▁purpose	-10.1345
even	-10.1353
▁advance	-10.1364
▁convinced	-10.1373
▁gear	-10.1376
▁grabbed	-10.1391
▁necessarily	-10.1408
▁join	-10.141
▁specifically	-10.1411
▁club	-10.1411
That	-10.1433
▁mood	-10.144
▁interests	-10.1447
▁required	-10.1458
▁Unfortunately	-10.1471
▁memory	-10.1478
▁map	-10.1505
▁product	-10.153
▁professional	-10.153
▁filled	-10.1532
▁theory	-10.1537
▁benefit	-10.1542
▁accident	-10.1548
▁search	-10.1552
▁convince	-10.1566
▁regularly	-10.1588
▁rough	-10.1597
▁mistakes	-10.1605
▁hearing	-10.1608
▁suggested	-10.1618
▁somebody	-10.1629
▁hotel	-10.163
▁Christian	-10.1644
▁shy	-10.1647
▁badly	-10.1652
▁laid	-10.1652
▁L	-10.166
▁lied	-10.1662
▁loving	-10.1664
▁exercise	-10.1669
▁developed	-10.1688
▁math	-10.169
▁smoked	-10.169
7	-10.1692
▁vote	-10.1703
▁benefits	-10.1704
▁frustrated	-10.1716
▁band	-10.1723
▁desire	-10.1731
▁stage	-10.1735
▁glass	-10.1742
▁members	-10.1742
▁wanna	-10.1767
▁successful	-10.1769
▁walks	-10.1772
▁hide	-10.1776
▁release	-10.1779
▁throwing	-10.1821
▁record	-10.1825
▁instantly	-10.1832
▁million	-10.185
▁smaller	-10.1879
▁letter	-10.1879
▁N	-10.1879
▁occasionally	-10.1887
▁gift	-10.189
▁farm	-10.1898
▁80	-10.1906
▁unable	-10.1915
▁anger	-10.1917
▁population	-10.1921
▁limited	-10.1921
▁Today	-10.1923
▁bills	-10.1932
▁Instead	-10.1941
▁stood	-10.1948
H	-10.1964
▁rape	-10.197
?)	-10.197
nd	-10.1974
▁fake	-10.1975
▁Two	-10.1976
▁Right	-10.1982
▁confident	-10.1983
▁Over	-10.1984
co	-10.1984
▁political	-10.1992
▁ending	-10.1993
▁attitude	-10.2002
▁hole	-10.2003
▁silly	-10.2004
▁enjoyed	-10.2008
▁atheist	-10.2009
▁responded	-10.2016
▁Nothing	-10.2018
▁prior	-10.2022
▁parking	-10.2026
▁basis	-10.203
▁hated	-10.2054
▁blow	-10.2055
ry	-10.206
▁divorce	-10.2063
▁significant	-10.2064
▁progress	-10.2065
▁prefer	-10.2065
▁nowhere	-10.2072
▁fail	-10.2077
ING	-10.208
▁legs	-10.2081
▁w	-10.209
▁Its	-10.2117
▁suicide	-10.2124
▁selfish	-10.2135
▁suggestions	-10.2137
▁industry	-10.2142
▁parent	-10.2147
well	-10.2167
▁reasonable	-10.217
▁bored	-10.2181
▁image	-10.2186
▁surgery	-10.2188
▁BF	-10.2191
▁panic	-10.2191
▁claims	-10.2194
▁switch	-10.2195
▁target	-10.22
▁block	-10.2202
box	-10.2205
▁universe	-10.2225
▁refused	-10.2226
▁therefore	-10.2227
▁checked	-10.2227
▁freaking	-10.2243
▁ignored	-10.2248
▁environment	-10.2251
▁responsible	-10.2253
▁arms	-10.2267
▁anyways	-10.2274
▁:)	-10.2279
▁decisions	-10.2281
▁boring	-10.2292
▁laughed	-10.2296
▁among	-10.2297
▁beliefs	-10.2302
▁path	-10.2302
▁helpful	-10.2317
▁nights	-10.2327
▁spoke	-10.2336
▁hits	-10.2341
▁Are	-10.2344
▁rule	-10.2346
ted	-10.2347
▁ourselves	-10.2347
z	-10.2362
▁solo	-10.2371
▁tiny	-10.2376
▁station	-10.2382
her	-10.2386
▁characters	-10.2394
▁recommend	-10.2395
▁graduated	-10.2399
▁Still	-10.2399
▁setting	-10.2414
▁complex	-10.2414
Just	-10.2414
▁naturally	-10.2419
▁talks	-10.2426
▁context	-10.2485
?\	-10.2485
▁PS	-10.2487
▁rude	-10.2492
▁song	-10.2492
!)	-10.2495
▁afterwards	-10.2499
▁penis	-10.2499
▁judge	-10.25
▁studying	-10.2502
▁minimum	-10.2519
▁lol	-10.2522
▁film	-10.2524
▁aside	-10.2528
▁reached	-10.2533
▁lights	-10.2554
▁arguments	-10.2558
▁apply	-10.2559
▁shared	-10.256
▁pizza	-10.2575
▁rights	-10.2583
▁affect	-10.2584
▁uses	-10.2589
▁Go	-10.2589
▁kissed	-10.2591
▁runs	-10.2598
▁remove	-10.2608
com	-10.2615
▁frequently	-10.2618
▁larger	-10.2637
▁Again	-10.2638
Yes	-10.2639
oh	-10.2639
▁glad	-10.2651
▁removed	-10.2652
▁smile	-10.2663
Hello	-10.2666
▁highly	-10.2671
▁waited	-10.2673
▁shape	-10.2679
▁include	-10.2687
▁dance	-10.2688
▁model	-10.2689
▁leads	-10.2691
▁balls	-10.2706
▁proper	-10.2722
▁treatment	-10.2725
▁faith	-10.2743
▁tree	-10.2746
▁therapy	-10.2746
....	-10.2749
▁Fuck	-10.2756
▁minor	-10.2757
▁bike	-10.2758
▁fixed	-10.2773
▁dogs	-10.2778
▁c	-10.278
▁hurting	-10.278
el	-10.2784
▁rock	-10.2785
▁raise	-10.279
▁count	-10.2794
▁code	-10.2801
ty	-10.2813
▁finger	-10.2815
▁user	-10.2819
▁load	-10.2824
▁pot	-10.283
▁TO	-10.2833
▁hook	-10.2838
▁tech	-10.284
▁wont	-10.2843
▁impact	-10.2844
▁flight	-10.2846
▁ate	-10.2858
▁mana	-10.2863
im	-10.2875
um	-10.2876
▁bringing	-10.2877
▁success	-10.2877
▁taught	-10.2883
▁pop	-10.2886
ally	-10.29
▁dying	-10.2913
▁tears	-10.2917
▁statement	-10.2927
▁curious	-10.2934
▁ruin	-10.2936
$	-10.2937
J	-10.2949
▁secret	-10.2953
▁relevant	-10.2955
▁names	-10.2959
▁Obviously	-10.2967
▁weak	-10.297
▁listening	-10.2975
mo	-10.2977
▁sending	-10.2982
▁fired	-10.2983
▁chose	-10.299
▁shirt	-10.3003
▁green	-10.3006
▁cell	-10.302
▁cant	-10.3022
▁AP	-10.3034
▁proud	-10.304
▁22	-10.3055
▁expecting	-10.3055
▁center	-10.3072
▁pack	-10.3086
▁breaks	-10.31
▁brings	-10.3102
ate	-10.3104
▁staff	-10.3107
▁mum	-10.3113
▁roll	-10.3119
▁teachers	-10.3122
▁answers	-10.3131
▁performance	-10.3137
▁mass	-10.3146
▁struggling	-10.3146
▁Dad	-10.3155
▁taxes	-10.3158
▁medication	-10.3162
ive	-10.3167
▁dirty	-10.3171
▁animals	-10.3188
▁design	-10.319
▁plays	-10.3198
▁extreme	-10.3205
▁sold	-10.3216
▁oil	-10.3217
xb	-10.3227
▁ult	-10.3233
▁piss	-10.3246
▁button	-10.3251
▁shoulder	-10.3254
First	-10.3259
▁schedule	-10.3261
▁apologized	-10.3269
▁communicate	-10.3276
▁incident	-10.3279
▁assumed	-10.3281
▁illegal	-10.3299
▁admitted	-10.3308
▁locked	-10.3311
▁fill	-10.3322
▁Have	-10.3323
▁require	-10.3324
▁phase	-10.3331
▁AD	-10.3342
▁everybody	-10.3344
pm	-10.3347
▁besides	-10.3349
▁shoes	-10.3354
▁insane	-10.336
▁giant	-10.3364
▁flirting	-10.3371
▁dreams	-10.3378
▁forth	-10.3381
U	-10.3382
▁scale	-10.3384
▁useful	-10.3395
▁campus	-10.3399
▁Both	-10.3407
▁proof	-10.3414
▁calories	-10.3421
▁member	-10.3427
ED	-10.3428
▁genuinely	-10.3429
▁Did	-10.3436
▁muscle	-10.3448
▁distant	-10.3449
▁Be	-10.3453
▁greatly	-10.3454
▁proceed	-10.3478
▁discovered	-10.3483
fuck	-10.3492
▁Only	-10.3493
▁concept	-10.3494
▁trees	-10.3506
▁whom	-10.351
▁sake	-10.3512
▁teeth	-10.3512
▁pretend	-10.3521
▁sports	-10.3526
▁effective	-10.3531
▁bowl	-10.3535
▁steps	-10.3543
ine	-10.3548
▁burn	-10.3552
▁oh	-10.3552
▁doctors	-10.3557
▁owner	-10.356
ized	-10.3565
▁property	-10.3565
▁strength	-10.3566
▁prevent	-10.3577
▁maintain	-10.3588
▁rid	-10.359
▁cleaning	-10.3594
▁League	-10.3601
▁hero	-10.3603
▁material	-10.3614
▁camp	-10.3617
▁picking	-10.3625
te	-10.3632
▁customers	-10.3635
She	-10.3636
▁suppose	-10.3646
▁heat	-10.3649
▁mainly	-10.365
▁Saturday	-10.3653
▁trade	-10.3653
▁anybody	-10.3653
▁insecure	-10.3678
▁taste	-10.3683
▁causes	-10.3683
▁evil	-10.3688
▁tip	-10.3705
▁color	-10.3708
▁factor	-10.3711
▁earth	-10.3721
▁staring	-10.3724
▁modern	-10.374
age	-10.3753
Me	-10.3758
▁alive	-10.3776
▁understood	-10.3803
▁sexy	-10.3806
▁loan	-10.3807
▁humans	-10.3822
with	-10.3841
▁disagree	-10.3844
▁Although	-10.3855
▁stated	-10.3855
▁assuming	-10.3855
▁stronger	-10.3859
because	-10.3866
▁uncle	-10.3875
▁toward	-10.3875
▁discuss	-10.388
▁receive	-10.3894
▁grandmother	-10.3904
▁rare	-10.3906
▁contract	-10.3908
▁supportive	-10.3927
▁accidentally	-10.3929
▁opening	-10.3941
off	-10.3947
▁Sunday	-10.3949
old	-10.3952
▁An	-10.3954
▁dangerous	-10.3955
▁traffic	-10.3959
▁awhile	-10.3962
▁believed	-10.3964
▁teach	-10.3974
Do	-10.3979
▁cried	-10.398
▁pieces	-10.3983
▁zero	-10.3995
▁Good	-10.3997
▁rant	-10.4003
▁Long	-10.401
▁Would	-10.401
▁winning	-10.4016
▁movement	-10.4026
lbs	-10.4035
▁windows	-10.4045
▁Recently	-10.4046
▁marry	-10.4058
▁goals	-10.4059
▁describe	-10.406
▁racist	-10.4061
▁pounds	-10.407
▁file	-10.4071
▁graduate	-10.4084
▁rage	-10.4085
▁cutting	-10.4086
▁chair	-10.4089
▁embarrassed	-10.4094
▁equal	-10.4108
▁mentally	-10.4115
10	-10.4115
▁annoyed	-10.4119
▁battle	-10.4128
▁brand	-10.4136
ary	-10.4137
▁areas	-10.4148
▁rich	-10.4151
▁trash	-10.4158
▁limit	-10.4159
▁budget	-10.4185
▁LoL	-10.4186
▁develop	-10.4187
▁cheat	-10.4192
▁spread	-10.4195
▁committed	-10.4196
▁fed	-10.4199
▁console	-10.4204
▁lonely	-10.4207
▁doesnt	-10.421
▁jail	-10.4213
▁grown	-10.422
ful	-10.4222
▁direct	-10.4224
▁Yeah	-10.4226
ach	-10.4227
▁detail	-10.4228
▁videos	-10.4231
▁decides	-10.4237
▁freshman	-10.4241
▁cross	-10.4245
nThe	-10.4251
▁roommates	-10.4252
▁noise	-10.4257
▁Help	-10.4261
▁loose	-10.4284
▁department	-10.4284
▁kissing	-10.4285
▁John	-10.4291
▁officer	-10.4294
▁depending	-10.4296
▁complain	-10.43
▁rush	-10.4301
Why	-10.4308
▁camera	-10.4308
▁photos	-10.4309
▁possibility	-10.4309
▁magic	-10.4309
▁meat	-10.4321
▁bothered	-10.4326
▁ruined	-10.4331
▁draw	-10.4335
▁attached	-10.4336
▁hates	-10.4345
▁views	-10.4349
▁purchase	-10.4351
▁More	-10.4351
▁pulling	-10.4358
▁passing	-10.4375
how	-10.4378
▁jokes	-10.4379
▁Next	-10.4382
▁fly	-10.4392
▁23	-10.4397
▁Later	-10.4403
▁potentially	-10.4424
▁selling	-10.4427
▁alot	-10.443
▁clue	-10.4432
▁guilt	-10.4435
▁Those	-10.4442
▁software	-10.445
▁sees	-10.4451
▁f	-10.4458
▁types	-10.446
▁dry	-10.4464
▁Got	-10.447
▁complaining	-10.4473
▁unique	-10.4473
▁logic	-10.4473
▁45	-10.4473
▁safety	-10.4474
▁stressed	-10.4478
▁intense	-10.4479
▁remain	-10.4498
▁requires	-10.4499
▁ill	-10.4506
ter	-10.4509
▁nose	-10.4512
▁auto	-10.4515
For	-10.452
▁tower	-10.4524
▁scary	-10.4534
▁instance	-10.4544
ize	-10.4554
▁complicated	-10.4557
▁absolute	-10.4562
▁heavily	-10.4566
▁Monday	-10.4567
▁shock	-10.4571
▁hopefully	-10.4587
▁signs	-10.459
▁max	-10.4597
▁choices	-10.4601
▁lies	-10.4607
▁engaged	-10.4613
▁patch	-10.4618
▁weapons	-10.4621
▁hooked	-10.4638
▁sides	-10.4638
▁ALL	-10.4645
nSo	-10.4652
▁powerful	-10.4657
▁grades	-10.466
▁policy	-10.4661
▁queue	-10.4674
▁protect	-10.4676
▁monitor	-10.4679
▁competitive	-10.4683
▁previously	-10.4683
▁neighbor	-10.469
▁included	-10.4693
▁allows	-10.4694
▁fellow	-10.4697
▁DO	-10.4707
▁typical	-10.4709
▁update	-10.4724
▁click	-10.4734
▁raid	-10.4738
▁Other	-10.4744
▁OK	-10.475
▁moments	-10.4754
▁freaked	-10.4765
▁plane	-10.4771
▁jumped	-10.4774
▁p	-10.4785
▁Who	-10.4785
▁weapon	-10.4788
▁Get	-10.4792
▁lbs	-10.4795
▁license	-10.4801
▁leading	-10.4802
▁thousands	-10.4805
▁creepy	-10.4811
per	-10.4813
▁crowd	-10.4822
▁exchange	-10.4826
ra	-10.4828
▁capable	-10.483
▁regarding	-10.4834
▁edge	-10.4839
▁cares	-10.4845
▁2-3	-10.4848
▁boys	-10.4861
year	-10.4883
▁hardly	-10.4884
▁useless	-10.4887
▁matters	-10.489
▁jungler	-10.4894
▁chill	-10.4895
▁coworker	-10.49
▁Many	-10.4901
▁employees	-10.4903
▁responsibility	-10.4904
▁Plus	-10.4905
de	-10.4905
▁returned	-10.491
▁pocket	-10.4911
▁arrived	-10.4912
▁loans	-10.4924
▁released	-10.4938
line	-10.4942
[	-10.4946
▁drama	-10.4952
▁addition	-10.4955
▁status	-10.4963
▁explanation	-10.4972
▁stream	-10.4974
▁photo	-10.4988
▁meta	-10.4997
▁circle	-10.4998
▁lock	-10.5
To	-10.5011
▁cook	-10.5014
▁armor	-10.5016
▁neck	-10.5019
▁childhood	-10.5038
▁connected	-10.5061
▁puts	-10.5063
can	-10.5065
▁silence	-10.5071
▁lease	-10.5075
▁ADHD	-10.5079
▁intelligent	-10.5089
▁core	-10.5091
▁shocked	-10.5097
▁breath	-10.5102
▁severe	-10.5119
▁meal	-10.5121
▁motivation	-10.5121
▁Was	-10.5124
▁Never	-10.5126
▁development	-10.5137
▁sales	-10.5142
▁explaining	-10.5154
▁painful	-10.5154
▁gender	-10.5164
▁section	-10.5165
when	-10.5204
yes	-10.5204
▁yelled	-10.5208
▁acts	-10.5224
▁discussed	-10.5224
▁elo	-10.5226
▁copy	-10.5226
▁economy	-10.5226
▁false	-10.5228
▁caring	-10.5232
▁randomly	-10.5241
▁flying	-10.5252
▁belief	-10.5254
▁shoot	-10.5254
▁users	-10.526
▁condition	-10.5263
▁animal	-10.5265
▁diagnosed	-10.5269
▁aunt	-10.5272
▁bot	-10.5273
▁fantastic	-10.5276
▁feed	-10.5288
▁lay	-10.5289
▁location	-10.5291
▁fish	-10.5297
▁computers	-10.5305
▁client	-10.5306
▁definition	-10.5314
▁Windows	-10.5334
▁visiting	-10.5337
▁network	-10.5342
ch	-10.535
▁Canada	-10.5356
▁football	-10.5367
▁acted	-10.5373
Yeah	-10.5373
▁scenario	-10.5378
▁replace	-10.5388
▁struggle	-10.5388
...""	-10.5396
▁patient	-10.5405
▁knife	-10.5405
▁react	-10.5406
▁Google	-10.5408
▁vision	-10.5409
▁g	-10.5412
▁enjoying	-10.5416
▁200	-10.5429
▁miserable	-10.543
over	-10.5433
▁interview	-10.544
there	-10.544
▁aggressive	-10.5445
▁therapist	-10.5445
Here	-10.5445
▁harm	-10.5446
▁semi	-10.5447
▁frustrating	-10.5456
▁Needless	-10.5458
back	-10.5468
▁unhappy	-10.5469
▁tests	-10.547
▁sun	-10.5474
ro	-10.5482
▁manner	-10.5484
la	-10.5488
▁anxious	-10.5496
▁burst	-10.5499
▁guns	-10.5502
▁tons	-10.5508
▁stairs	-10.5515
▁messed	-10.5519
▁wide	-10.5519
▁wage	-10.5521
▁2)	-10.5521
men	-10.5525
▁Mom	-10.5526
▁depends	-10.5536
▁aspect	-10.5536
▁champ	-10.5537
▁neighborhood	-10.5548
ian	-10.556
▁arguing	-10.556
▁u	-10.5564
▁toxic	-10.5565
▁press	-10.5566
▁cast	-10.5571
▁initial	-10.5582
▁survive	-10.5584
▁focused	-10.5589
▁orgasm	-10.5594
▁pursue	-10.5596
▁method	-10.5602
by	-10.5605
▁cup	-10.5609
▁winter	-10.5617
▁spoken	-10.5618
▁saving	-10.5619
▁fresh	-10.5625
ex	-10.5636
▁ignoring	-10.564
▁technology	-10.564
▁enter	-10.5641
▁dress	-10.5657
▁app	-10.5666
▁De	-10.5674
▁silver	-10.5681
▁tight	-10.5684
).","	-10.5685
▁beach	-10.5687
▁circumstances	-10.5692
▁checking	-10.5696
▁Jesus	-10.5699
▁remind	-10.5705
▁afternoon	-10.5718
▁MY	-10.5724
▁roughly	-10.5728
▁symptoms	-10.5735
▁function	-10.5739
let	-10.5741
▁concern	-10.5743
▁placed	-10.5747
▁bro	-10.5749
▁keys	-10.5752
▁teammates	-10.5752
▁Where	-10.576
▁resources	-10.5765
▁typically	-10.5765
▁cycle	-10.5766
▁commit	-10.5772
▁fans	-10.5783
▁official	-10.5795
▁refuses	-10.5797
▁NO	-10.5804
▁former	-10.5809
▁banned	-10.5814
▁tickets	-10.5817
Okay	-10.5817
▁ban	-10.5822
▁doors	-10.5822
game	-10.5828
ul	-10.5842
▁thrown	-10.5844
il	-10.585
▁introduced	-10.5861
▁brothers	-10.5862
Got	-10.5862
!!	-10.588
▁escape	-10.5885
▁row	-10.5899
▁addiction	-10.5908
ia	-10.5912
▁wave	-10.5923
▁recognize	-10.5923
▁families	-10.5933
girlfriend	-10.594
▁chances	-10.5956
▁marijuana	-10.5961
▁Europe	-10.5961
▁pair	-10.5962
▁appropriate	-10.5972
▁chicken	-10.5974
▁comfort	-10.5981
▁crime	-10.5983
▁happiness	-10.5988
▁debate	-10.5993
▁products	-10.601
▁incredible	-10.6014
ri	-10.6022
Fuck	-10.6023
term	-10.6024
Ok	-10.6028
▁destroy	-10.6037
▁1)	-10.6038
▁sharing	-10.6043
▁input	-10.6044
way	-10.6045
▁attacks	-10.6046
day	-10.6047
na	-10.6048
▁blind	-10.6049
▁servers	-10.605
▁destroyed	-10.6051
▁juice	-10.6053
▁differently	-10.6056
▁solve	-10.6057
▁weekends	-10.606
▁warm	-10.6088
▁closest	-10.6096
▁terrified	-10.6097
▁schools	-10.6109
▁ME	-10.6111
▁Hell	-10.6122
▁studies	-10.6125
▁paranoid	-10.6126
ant	-10.6126
▁metal	-10.6127
▁UK	-10.6129
▁freedom	-10.6136
▁Has	-10.614
▁mail	-10.6141
▁knock	-10.6142
end	-10.6143
▁shake	-10.6169
ce	-10.617
▁activities	-10.6173
▁mixed	-10.6177
▁champs	-10.6178
▁Will	-10.6178
▁China	-10.6182
▁jerk	-10.6189
▁named	-10.6189
▁ultimately	-10.6197
93	-10.6203
▁70	-10.6204
▁dorm	-10.6205
get	-10.6206
et	-10.6206
▁sight	-10.6208
ir	-10.6215
▁mechanics	-10.6221
▁freak	-10.6226
▁attend	-10.6227
▁Take	-10.6235
▁mix	-10.6236
▁lifestyle	-10.6253
▁express	-10.6255
GB	-10.6259
They	-10.6267
▁cable	-10.6277
▁abilities	-10.6278
▁sober	-10.628
▁cream	-10.6283
▁cheaper	-10.6284
▁request	-10.6287
▁sensitive	-10.6298
▁invite	-10.6318
▁buddies	-10.6321
▁CPU	-10.6322
▁emergency	-10.6322
▁May	-10.6327
▁y	-10.6334
▁ear	-10.634
▁folks	-10.6345
▁extent	-10.6348
▁o	-10.6349
▁challenge	-10.6355
op	-10.6358
▁pet	-10.6362
▁lift	-10.6363
▁shots	-10.6365
ta	-10.6368
▁stops	-10.6368
▁employee	-10.6377
▁screwed	-10.6385
Girlfriend	-10.6385
▁chick	-10.6401
▁tv	-10.6406
▁pointed	-10.6413
▁shame	-10.6416
▁bear	-10.6423
▁services	-10.6424
▁drops	-10.643
▁signed	-10.6444
▁shooting	-10.6447
friend	-10.645
▁guard	-10.6465
▁generation	-10.6479
▁favor	-10.6481
▁Keep	-10.6488
▁refuse	-10.6489
▁vehicle	-10.6491
▁routine	-10.6501
▁virgin	-10.6506
▁teaching	-10.6506
▁accounts	-10.651
▁mate	-10.6511
▁violent	-10.652
▁connect	-10.6526
▁seek	-10.6536
▁additional	-10.6545
▁disorder	-10.6549
▁primary	-10.6549
▁gained	-10.6552
▁speech	-10.6561
▁Day	-10.6584
▁CS	-10.6585
▁payment	-10.6588
▁exclusive	-10.6604
▁lawyer	-10.6609
ier	-10.6613
▁meds	-10.6622
▁existence	-10.6638
▁activity	-10.664
ap	-10.6641
▁highschool	-10.6652
▁opponent	-10.6652
▁snow	-10.6664
▁unsure	-10.6664
▁violence	-10.6665
▁Luckily	-10.6665
▁failure	-10.6668
▁hall	-10.6676
▁matches	-10.6682
▁controlling	-10.6684
▁dollar	-10.6684
▁unfortunately	-10.6684
▁pulls	-10.6686
▁laying	-10.6693
▁stable	-10.6694
LY	-10.6696
▁conclusion	-10.6696
▁amounts	-10.6698
▁buff	-10.6709
▁programs	-10.6709
One	-10.6718
▁habit	-10.672
▁ordered	-10.6723
▁score	-10.6724
▁profile	-10.6727
▁upstairs	-10.6737
▁influence	-10.6739
▁High	-10.6741
▁wind	-10.6746
some	-10.6753
ance	-10.6754
)\	-10.6759
li	-10.6763
▁Second	-10.6782
▁applied	-10.6782
▁mark	-10.6784
▁eachother	-10.6785
ous	-10.6786
30	-10.6787
▁Their	-10.6787
▁deleted	-10.6793
▁Americans	-10.6801
▁boat	-10.6807
▁intimate	-10.6807
▁unit	-10.6812
▁threat	-10.6816
▁joined	-10.6826
▁plastic	-10.6827
▁fiance	-10.6828
▁Honestly	-10.6837
▁spell	-10.6841
▁appear	-10.6842
▁alright	-10.6843
▁expressed	-10.685
▁planet	-10.6852
▁pure	-10.6854
▁stock	-10.6868
▁prepared	-10.6882
good	-10.6883
▁systems	-10.6883
▁Y	-10.6884
▁intended	-10.6889
▁decks	-10.6899
▁web	-10.691
▁suffer	-10.6912
▁steal	-10.6918
▁grandfather	-10.6932
▁familiar	-10.6945
▁profit	-10.6945
▁min	-10.6949
▁informed	-10.6955
▁drives	-10.6963
▁hug	-10.6965
▁casually	-10.6968
▁assholes	-10.6972
▁partners	-10.6973
▁disappointed	-10.6976
▁creating	-10.6978
▁screw	-10.6984
▁deeply	-10.6988
▁threatened	-10.6993
▁sucked	-10.6995
▁troll	-10.6996
▁financially	-10.6998
our	-10.7004
▁hundreds	-10.7006
▁spring	-10.7007
▁See	-10.7007
▁grandma	-10.7014
▁wasted	-10.7033
▁defend	-10.7039
▁January	-10.7052
▁continues	-10.7065
▁individuals	-10.7077
▁upgrade	-10.7082
▁throat	-10.7083
▁condom	-10.7086
▁examples	-10.7089
▁3-4	-10.709
▁happier	-10.7096
▁graphics	-10.7096
▁transfer	-10.7097
▁Earth	-10.7098
▁THAT	-10.7098
▁Had	-10.7108
▁ugly	-10.7115
▁length	-10.7119
▁bothers	-10.7123
▁shopping	-10.7127
os	-10.7131
▁yell	-10.7132
▁tall	-10.714
▁lasted	-10.7156
▁memories	-10.7157
▁drivers	-10.7165
▁actively	-10.7166
▁rank	-10.7183
▁moves	-10.7187
▁valid	-10.7189
▁mouse	-10.7189
▁savings	-10.7215
▁designed	-10.7217
Let	-10.7221
▁hiding	-10.7225
▁welcome	-10.7234
▁breakfast	-10.7234
▁Hav	-10.7235
▁significantly	-10.7241
▁warning	-10.7249
▁exam	-10.7254
▁demand	-10.7257
▁rely	-10.7259
▁pee	-10.7262
▁portion	-10.7263
right	-10.7267
▁mirror	-10.7275
▁exists	-10.7276
ci	-10.7305
▁enemies	-10.7313
▁confronted	-10.7319
▁concerns	-10.7322
▁socially	-10.7323
▁shown	-10.7324
▁supply	-10.7329
▁chatting	-10.7331
▁basement	-10.7344
▁chemistry	-10.7344
▁uni	-10.7347
▁homework	-10.7348
▁chain	-10.7359
▁WoW	-10.736
▁burning	-10.7363
▁shortly	-10.7364
▁increased	-10.7364
▁effectively	-10.7365
▁provided	-10.7365
▁combat	-10.7368
▁originally	-10.737
ac	-10.7374
▁defense	-10.7377
▁sorts	-10.738
mg	-10.738
lo	-10.7381
▁divorced	-10.7385
▁habits	-10.7386
▁promised	-10.7389
▁attraction	-10.7391
▁logical	-10.7392
▁stranger	-10.7393
▁zone	-10.7398
▁stats	-10.7402
▁competition	-10.7405
▁Make	-10.7422
▁soul	-10.7428
▁26	-10.7429
▁responses	-10.7431
▁opposed	-10.7439
▁kinds	-10.7454
▁AT	-10.7458
▁correctly	-10.7464
▁War	-10.7466
▁compare	-10.7468
▁whils	-10.7468
▁conditions	-10.747
▁claimed	-10.7471
▁bars	-10.7476
▁Back	-10.7477
▁Black	-10.748
▁forgive	-10.748
▁tournament	-10.7484
▁tool	-10.749
▁dumped	-10.7492
▁climb	-10.7495
▁cats	-10.75
ent	-10.7505
▁spare	-10.7506
▁flash	-10.7509
▁arrested	-10.7521
ah	-10.7525
ating	-10.7536
▁Look	-10.7537
▁standards	-10.7538
▁yard	-10.7546
▁flip	-10.7553
▁peace	-10.7561
▁begins	-10.7568
▁handed	-10.7573
▁according	-10.7581
▁fallen	-10.7582
▁joint	-10.7586
▁technically	-10.7601
▁army	-10.7606
ass	-10.7609
▁initiate	-10.7611
▁surface	-10.7612
▁sugar	-10.7626
▁nearby	-10.7629
▁bug	-10.7632
▁battery	-10.7644
▁pen	-10.7645
ator	-10.7652
▁foreign	-10.7657
▁500	-10.766
▁scientific	-10.7679
▁workout	-10.7687
▁repeat	-10.7689
...","	-10.7709
▁horror	-10.7709
▁independent	-10.772
▁steam	-10.7721
▁REALLY	-10.7725
▁practically	-10.7727
▁milk	-10.773
▁poop	-10.774
Boyfriend	-10.7742
▁greater	-10.7744
▁gap	-10.7754
▁stands	-10.7757
▁realizing	-10.7759
▁pills	-10.7765
▁insight	-10.7766
▁answered	-10.7766
▁NA	-10.777
▁fingers	-10.7772
▁nasty	-10.7773
▁dropping	-10.7774
▁error	-10.7778
▁walls	-10.7789
25	-10.7789
▁attempts	-10.7789
▁garage	-10.779
▁junior	-10.7791
▁North	-10.7793
▁attempted	-10.7796
▁factors	-10.7804
▁english	-10.7808
▁Anyone	-10.7816
.,"	-10.7825
▁management	-10.7826
▁acid	-10.7826
▁rejected	-10.7826
▁upper	-10.7826
▁sites	-10.7827
▁mature	-10.7827
▁drank	-10.7839
boyfriend	-10.7841
▁sentence	-10.7845
con	-10.7845
▁tested	-10.7848
Can	-10.7849
▁fence	-10.7855
▁prices	-10.7862
▁IS	-10.7864
▁master	-10.7878
read	-10.7882
▁differences	-10.7888
▁reported	-10.7893
▁promise	-10.7894
▁realise	-10.7907
▁karma	-10.7907
▁device	-10.7908
▁cake	-10.7909
▁wins	-10.7912
▁coworkers	-10.7913
▁crack	-10.7915
▁recall	-10.7915
▁Usually	-10.7923
▁knee	-10.7926
po	-10.7942
...",	-10.7949
▁siblings	-10.7952
▁prison	-10.7953
▁awake	-10.796
▁quote	-10.7961
▁stolen	-10.7966
▁reference	-10.7996
▁cared	-10.7997
▁brief	-10.8002
▁ignorant	-10.8004
▁homeless	-10.8006
▁disease	-10.8009
▁liquid	-10.8009
▁gross	-10.8019
▁realised	-10.8022
▁impression	-10.8025
▁holiday	-10.8028
▁School	-10.8042
▁finds	-10.8049
long	-10.8063
▁abortion	-10.8064
▁BUT	-10.8074
▁cheese	-10.8075
▁flow	-10.8079
▁victim	-10.8079
▁suffering	-10.8085
▁headed	-10.8088
▁hey	-10.81
▁PM	-10.8104
ut	-10.8106
▁South	-10.8109
▁touching	-10.811
▁appears	-10.8116
▁sport	-10.8121
▁moral	-10.8122
▁medicine	-10.8123
▁engage	-10.8125
although	-10.8126
▁episode	-10.813
▁sink	-10.8135
ping	-10.8141
▁Chinese	-10.8141
▁tone	-10.8146
▁described	-10.8146
▁1.5	-10.8149
Some	-10.8156
▁settle	-10.816
▁failing	-10.8161
▁gameplay	-10.8164
▁perform	-10.8177
▁object	-10.8177
Your	-10.8183
ig	-10.8185
▁bright	-10.8186
▁lanes	-10.8189
▁behaviour	-10.819
▁consequences	-10.8191
▁greatest	-10.8199
though	-10.8203
▁sets	-10.8204
nbsp	-10.8206
▁achieve	-10.8207
▁reasoning	-10.8217
▁star	-10.8219
▁defensive	-10.8221
▁Think	-10.8221
▁dis	-10.8222
▁confusing	-10.8223
▁values	-10.8224
▁believes	-10.8226
▁lesson	-10.8229
▁testing	-10.8231
▁k	-10.8239
▁California	-10.8242
▁commitment	-10.8249
▁finishing	-10.825
▁ship	-10.8255
▁States	-10.8255
▁forces	-10.8261
▁St	-10.8263
▁careful	-10.8269
▁boot	-10.8273
more	-10.8274
▁wallet	-10.8276
▁Ok	-10.8277
▁Either	-10.8279
▁disgusting	-10.8281
▁pill	-10.829
▁bonus	-10.8293
▁December	-10.8294
▁initially	-10.8298
▁produce	-10.83
▁neighbors	-10.8304
maybe	-10.8313
▁carrying	-10.8317
▁heads	-10.8319
ring	-10.8323
▁End	-10.8325
▁suspect	-10.8327
▁lab	-10.8328
ad	-10.8328
Sorry	-10.8334
▁unfair	-10.8341
▁dancing	-10.8344
▁indeed	-10.8344
▁feedback	-10.8344
▁August	-10.8345
▁Especially	-10.8346
▁politics	-10.8354
▁accurate	-10.8357
▁desperate	-10.8357
▁OF	-10.8366
▁highest	-10.837
▁dressed	-10.8376
94	-10.8376
id	-10.8378
▁LOT	-10.8382
▁overly	-10.8382
▁oral	-10.8391
▁wheel	-10.8395
▁28	-10.84
50	-10.8409
▁douche	-10.8411
▁equipment	-10.8414
▁Part	-10.8416
▁Yet	-10.8416
▁dealt	-10.8422
▁d	-10.8424
▁teenager	-10.8426
▁remembered	-10.8427
▁relax	-10.8428
).",	-10.8442
▁pregnancy	-10.8448
▁workers	-10.8452
▁determine	-10.8454
oo	-10.8457
▁crash	-10.8462
▁raped	-10.8463
▁blocked	-10.8465
▁trick	-10.8466
▁ladies	-10.8467
▁install	-10.8468
▁throwaway	-10.8469
▁display	-10.8473
▁stole	-10.8475
▁sale	-10.8477
▁conservative	-10.848
▁strangers	-10.8487
about	-10.8487
▁vent	-10.8491
▁hill	-10.8491
worker	-10.8492
▁300	-10.8506
▁knocked	-10.8511
▁Someone	-10.8514
hey	-10.8525
▁engine	-10.8536
▁log	-10.8536
▁wise	-10.8536
▁searching	-10.8542
▁cooking	-10.8553
▁garbage	-10.8554
▁discussing	-10.8555
▁strongly	-10.856
▁grad	-10.856
▁murder	-10.8569
▁strategy	-10.857
▁dump	-10.8583
▁rates	-10.8588
▁FUCKING	-10.8588
)"	-10.8596
was	-10.86
▁fought	-10.8606
▁abroad	-10.8606
▁rolled	-10.8607
▁principal	-10.8607
▁evolution	-10.8612
▁adults	-10.8615
▁cum	-10.8617
ma	-10.8617
▁Really	-10.8618
▁presence	-10.8624
▁task	-10.8624
▁vagina	-10.8629
▁professor	-10.864
▁con	-10.8641
▁ashamed	-10.8643
▁United	-10.8643
▁grammar	-10.8644
▁Okay	-10.8651
▁scream	-10.8652
▁Christians	-10.8652
▁adding	-10.8656
▁blew	-10.8659
▁Ever	-10.8669
em	-10.8675
▁pleasure	-10.8678
▁proceeds	-10.8679
▁production	-10.8681
▁riding	-10.8683
▁falls	-10.8691
▁downstairs	-10.8695
▁setup	-10.871
▁plate	-10.8712
▁aid	-10.8715
▁wild	-10.8715
▁frame	-10.8717
▁owned	-10.8718
▁offended	-10.8719
▁AM	-10.8731
▁hardware	-10.8734
▁aspects	-10.8746
And	-10.8746
▁airport	-10.8749
▁charges	-10.8758
▁net	-10.8761
▁affected	-10.8765
▁radio	-10.8768
▁picks	-10.8773
▁Man	-10.8779
▁slight	-10.878
▁comparison	-10.8781
▁FUCK	-10.8799
▁silent	-10.88
▁innocent	-10.88
▁earn	-10.8801
▁library	-10.8803
▁wash	-10.8806
▁ideal	-10.8809
▁civil	-10.8811
▁joking	-10.8818
▁cleaned	-10.8832
▁combination	-10.8837
▁nurse	-10.8838
▁VERY	-10.8839
▁replies	-10.8839
▁password	-10.8839
llowing	-10.8849
▁confront	-10.8871
!!!	-10.8874
nWe	-10.8875
▁hundred	-10.8875
▁ADC	-10.8879
▁Whenever	-10.8884
▁grandparents	-10.8885
▁mins	-10.8901
▁Pro	-10.8901
▁:(	-10.8902
▁hilarious	-10.8908
▁strip	-10.8911
▁liking	-10.8912
▁guide	-10.8912
▁facing	-10.8915
▁jumping	-10.8928
▁gank	-10.8931
▁girlfriends	-10.8932
▁hungry	-10.8933
▁halfway	-10.8933
▁replaced	-10.8934
People	-10.8937
▁mile	-10.8942
▁rolling	-10.8952
▁mis	-10.8964
▁conflict	-10.8965
▁charged	-10.897
▁Dota	-10.8972
▁acceptable	-10.8972
ated	-10.8973
▁supporting	-10.8975
▁35	-10.8979
▁Co	-10.898
down	-10.8982
,000	-10.9002
▁27	-10.9003
▁automatically	-10.9003
▁visited	-10.9004
▁suit	-10.9004
hi	-10.9006
▁hopes	-10.9007
▁sources	-10.9011
work	-10.9024
▁heroes	-10.9024
▁heal	-10.9027
see	-10.9027
▁whereas	-10.9031
▁contacted	-10.9038
▁sounded	-10.904
▁seven	-10.904
▁consistently	-10.9043
where	-10.9047
▁flag	-10.9048
after	-10.9051
▁numerous	-10.9059
▁sisters	-10.9059
▁thin	-10.9074
▁sometime	-10.9075
▁stressful	-10.9095
▁poorly	-10.9097
ging	-10.9101
▁equally	-10.9103
▁Something	-10.9108
▁beating	-10.9111
▁google	-10.9113
▁notes	-10.9121
▁Though	-10.9123
▁Seriously	-10.9126
▁kit	-10.9134
▁June	-10.9136
▁ensure	-10.9139
▁pays	-10.9143
ft	-10.9152
▁federal	-10.9153
▁concert	-10.9155
▁Until	-10.9156
▁economic	-10.9159
▁files	-10.9165
▁World	-10.9176
▁mobile	-10.9177
▁bible	-10.919
▁stopping	-10.9193
ER	-10.9202
▁Un	-10.9202
▁burned	-10.9205
▁opportunities	-10.9208
▁carried	-10.9209
▁secure	-10.9214
▁polite	-10.9226
▁2.5	-10.9227
▁abused	-10.9231
▁July	-10.9232
here	-10.9233
▁combo	-10.9235
▁appearance	-10.9246
▁session	-10.9253
▁passion	-10.9254
?!	-10.9258
▁Ex	-10.9261
▁cultural	-10.9266
bad	-10.9269
▁humor	-10.9281
▁route	-10.9284
▁University	-10.9285
▁Best	-10.929
izing	-10.9292
▁facts	-10.9295
▁touched	-10.9297
▁south	-10.9305
▁retarded	-10.9309
▁Obama	-10.9309
pro	-10.9311
▁pipe	-10.9314
▁Red	-10.9321
▁species	-10.9322
▁forgotten	-10.9322
▁priority	-10.9323
▁heading	-10.9328
Girl	-10.9331
king	-10.9332
▁plant	-10.9332
▁ultimate	-10.9339
▁horny	-10.9342
▁immature	-10.9343
▁Internet	-10.9345
ee	-10.935
▁ward	-10.9351
▁audience	-10.936
▁fuel	-10.936
▁IN	-10.936
▁j	-10.9371
▁treating	-10.9373
led	-10.9377
▁underwear	-10.9379
▁atheists	-10.938
▁repeatedly	-10.9381
▁tea	-10.9386
▁national	-10.9392
ization	-10.9399
▁degrees	-10.9406
why	-10.941
▁expectations	-10.9417
▁protection	-10.9421
▁$	-10.9428
tic	-10.9433
play	-10.9434
▁justify	-10.9438
bo	-10.944
▁2:	-10.9458
▁Despite	-10.9459
ne	-10.9476
▁suicidal	-10.9477
ok	-10.9484
▁swear	-10.9489
▁slide	-10.9495
▁chocolate	-10.9495
▁developing	-10.9496
▁seemingly	-10.9496
▁guild	-10.9497
▁closet	-10.9497
▁messaged	-10.9502
▁growth	-10.9503
▁engineering	-10.9506
▁Lo	-10.9511
▁bone	-10.9511
▁Time	-10.9513
▁variety	-10.9514
▁worrying	-10.9518
▁roof	-10.9533
▁affection	-10.9533
▁ripped	-10.9533
▁landed	-10.9535
▁wine	-10.9537
▁interaction	-10.9542
got	-10.9549
new	-10.955
▁cope	-10.9554
▁grocery	-10.9554
▁excuses	-10.9565
▁wasting	-10.9567
▁critical	-10.9573
▁ease	-10.9582
red	-10.9582
▁passes	-10.9598
▁delete	-10.9599
▁horse	-10.9603
ence	-10.9605
▁select	-10.961
▁$1	-10.9612
ph	-10.9613
▁ya	-10.9628
▁bench	-10.9629
▁unhealthy	-10.9631
▁virginity	-10.9632
▁receiving	-10.9632
▁lifting	-10.9635
▁prom	-10.9639
▁units	-10.9646
der	-10.9648
▁whatsoever	-10.9651
▁appointment	-10.9661
▁mall	-10.9664
▁hire	-10.9665
▁Mr	-10.9675
▁occasions	-10.9679
▁Great	-10.9683
▁conscious	-10.9684
free	-10.9684
▁emails	-10.9687
▁attempting	-10.9688
▁boost	-10.9688
▁flame	-10.9695
▁CC	-10.9696
▁approached	-10.9699
▁v	-10.97
▁investment	-10.9702
▁immediate	-10.9706
▁bomb	-10.9711
bit	-10.9712
Friend	-10.9716
▁bucks	-10.9717
▁forcing	-10.9718
▁roles	-10.9726
▁nuts	-10.9728
▁denied	-10.973
▁native	-10.973
▁privacy	-10.9731
▁weather	-10.9731
▁happily	-10.9731
▁motion	-10.9737
▁purchased	-10.9737
▁bite	-10.9737
▁grand	-10.974
▁comp	-10.9745
▁riot	-10.9746
▁typing	-10.9749
▁viable	-10.9753
▁associated	-10.9758
▁alternative	-10.9762
▁protein	-10.9762
▁rational	-10.9764
▁format	-10.9786
da	-10.9791
Be	-10.9796
▁belt	-10.9806
ber	-10.981
head	-10.9811
▁Steam	-10.9813
j	-10.9817
▁expenses	-10.9818
▁dislike	-10.9825
▁strike	-10.9829
▁embarrassing	-10.9832
Re	-10.9844
▁dragon	-10.9845
▁buried	-10.9849
▁overweight	-10.9853
ions	-10.9859
▁holidays	-10.9863
▁1000	-10.9879
▁relative	-10.9881
▁serve	-10.9884
▁rise	-10.9885
▁ER	-10.9885
▁features	-10.9887
▁legitimate	-10.9887
▁occurred	-10.989
▁Game	-10.9891
▁reduce	-10.9908
▁percentage	-10.991
school	-10.9915
▁boots	-10.993
▁rain	-10.9936
▁accepting	-10.9937
nMy	-10.9938
▁punishment	-10.9942
▁stack	-10.9947
▁sea	-10.9949
▁hobbies	-10.9951
▁Try	-10.9953
▁alcoholic	-10.9957
▁settings	-10.996
▁reward	-10.9968
▁clarify	-10.997
ities	-10.9984
▁tied	-10.9984
▁encourage	-10.9989
Was	-10.9991
now	-10.9995
▁positions	-11.0003
▁hallway	-11.0004
▁Big	-11.0007
▁urge	-11.0015
▁temperature	-11.0026
▁switched	-11.0031
▁relate	-11.0031
▁graduation	-11.0031
▁determined	-11.0032
▁exciting	-11.0033
▁combined	-11.0036
▁Gold	-11.0039
▁tier	-11.0046
ps	-11.0049
▁cities	-11.0052
▁importantly	-11.0053
20	-11.0054
▁Texas	-11.0054
▁songs	-11.006
▁deny	-11.0061
▁em	-11.0071
▁NEVER	-11.0072
▁clock	-11.0077
▁$2	-11.0078
▁September	-11.0095
ca	-11.0096
▁waking	-11.0114
▁default	-11.0115
▁improved	-11.0122
▁agreement	-11.0132
▁supports	-11.0133
▁labor	-11.0134
▁goodbye	-11.0137
▁extended	-11.0142
▁dust	-11.0144
▁lean	-11.0145
▁spells	-11.0149
▁plain	-11.0153
▁stealing	-11.0155
▁papers	-11.0155
▁burden	-11.0157
▁gifts	-11.0159
▁inappropriate	-11.016
▁Without	-11.0161
▁Didn	-11.0162
▁1/2	-11.0164
▁offers	-11.0174
▁hooking	-11.018
▁bleeding	-11.0181
bi	-11.0185
▁Same	-11.0187
▁USA	-11.0191
▁drunken	-11.0192
▁German	-11.0193
▁journey	-11.0196
ite	-11.02
▁acknowledge	-11.02
▁leader	-11.0202
▁vast	-11.0213
▁hired	-11.0213
▁nation	-11.0214
▁soft	-11.0214
▁hidden	-11.022
▁skip	-11.0226
▁brown	-11.0235
...)	-11.0235
▁volume	-11.024
ge	-11.024
only	-11.0248
▁$5	-11.0253
▁clicked	-11.0253
▁flirty	-11.0265
use	-11.0273
▁teenage	-11.0279
▁breathing	-11.0279
▁intentions	-11.028
▁dishes	-11.028
▁bong	-11.0283
▁package	-11.0285
▁occur	-11.0291
▁Dr	-11.0292
▁fashion	-11.0296
▁Star	-11.0296
▁identity	-11.0302
▁fund	-11.0304
▁mini	-11.0304
▁insisted	-11.0304
▁adc	-11.0305
▁download	-11.0306
▁farming	-11.0309
▁Probably	-11.0316
▁interact	-11.0317
▁IP	-11.0317
▁legally	-11.0317
▁accused	-11.033
ship	-11.033
▁increasing	-11.0335
▁cells	-11.0336
▁frankly	-11.0343
▁King	-11.0344
▁gut	-11.0347
▁threatening	-11.0354
▁cab	-11.0355
▁Japanese	-11.0368
▁structure	-11.037
OP	-11.0374
▁woods	-11.0379
▁repair	-11.0383
▁crappy	-11.0385
▁unlikely	-11.0389
▁Germany	-11.0389
sh	-11.0389
▁reset	-11.0395
▁Yesterday	-11.0395
)","	-11.0396
▁valuable	-11.0406
▁slip	-11.0407
your	-11.0407
▁organization	-11.0407
▁mindset	-11.0408
▁frequent	-11.0423
▁builds	-11.0424
▁exception	-11.0426
▁shield	-11.0431
▁review	-11.0432
▁Perhaps	-11.0432
▁projects	-11.0432
▁cap	-11.0443
ler	-11.0446
▁Bible	-11.0449
▁moon	-11.045
▁contribute	-11.0453
▁condoms	-11.0458
▁intention	-11.0464
▁punch	-11.0473
▁cancel	-11.0477
▁sits	-11.0479
▁laundry	-11.0492
from	-11.0494
▁flirt	-11.0507
▁square	-11.0513
▁MMR	-11.0513
▁injury	-11.0514
▁scare	-11.0515
▁skinny	-11.0515
▁boxes	-11.0524
▁invest	-11.0526
90	-11.053
▁plot	-11.0534
▁compatible	-11.0536
▁host	-11.0539
ba	-11.054
After	-11.0545
▁bi	-11.0548
15	-11.0548
▁instant	-11.0554
ise	-11.0555
▁efficient	-11.0556
▁thousand	-11.0559
▁offensive	-11.056
▁introduce	-11.0561
▁Looking	-11.0566
▁junk	-11.0568
▁encounter	-11.0569
▁bags	-11.0571
▁closing	-11.0577
▁sword	-11.0578
▁elsewhere	-11.0582
▁Joe	-11.0585
▁dies	-11.0586
▁mod	-11.0586
▁bugs	-11.0599
▁pile	-11.0605
▁payments	-11.0619
▁$100	-11.062
▁channel	-11.0623
▁parked	-11.0624
▁trips	-11.0629
▁creep	-11.063
ha	-11.063
00	-11.0635
▁collection	-11.0644
▁Need	-11.0645
his	-11.0646
▁GPU	-11.0647
▁deeper	-11.0656
▁strict	-11.0664
▁desktop	-11.0664
▁tension	-11.0664
▁mortgage	-11.0665
▁pussy	-11.0666
▁HP	-11.0669
▁intelligence	-11.0688
▁Japan	-11.0688
▁excellent	-11.0707
▁permission	-11.0708
▁pattern	-11.071
▁carries	-11.071
▁cigarettes	-11.0711
▁physics	-11.0712
▁pics	-11.0716
▁jack	-11.0718
▁Jane	-11.0727
side	-11.0729
▁ages	-11.0729
▁Australia	-11.0731
▁traditional	-11.0733
▁OS	-11.0734
▁$10	-11.0742
▁periods	-11.0744
▁haha	-11.0751
▁midnight	-11.0752
▁remaining	-11.0752
▁register	-11.0754
▁quarter	-11.0754
▁arrive	-11.0761
▁torn	-11.0774
▁vomit	-11.0777
friends	-11.0783
):	-11.0786
▁clingy	-11.0799
▁gotta	-11.0801
▁letters	-11.0803
▁spark	-11.0805
▁Out	-11.0805
mon	-11.0811
ol	-11.0815
▁tongue	-11.082
▁decade	-11.0821
▁April	-11.0822
Had	-11.0822
▁Went	-11.0825
most	-11.0827
▁deserves	-11.0827
▁occasional	-11.0841
▁believing	-11.0841
being	-11.0842
tro	-11.0845
▁pit	-11.0846
▁blast	-11.0847
▁bat	-11.0848
▁mates	-11.0858
▁courage	-11.0862
▁lovely	-11.0864
▁Destiny	-11.0864
▁Bo	-11.0865
▁claiming	-11.0875
▁reminded	-11.0878
etc	-11.0878
▁Mo	-11.0882
▁shaking	-11.0884
▁illness	-11.0884
▁follows	-11.0887
▁THIS	-11.0892
▁dependent	-11.0895
▁pointing	-11.0898
▁packed	-11.0904
▁Christianity	-11.0912
▁compromise	-11.0914
▁Very	-11.092
▁wound	-11.0925
ial	-11.0926
▁consent	-11.0939
▁suspicious	-11.0946
▁elementary	-11.0952
▁smooth	-11.0953
But	-11.0955
▁fool	-11.096
▁Except	-11.0964
▁La	-11.0969
▁fee	-11.097
▁bothering	-11.0971
▁reaching	-11.0972
▁counseling	-11.0974
▁pc	-11.0975
▁tools	-11.0981
light	-11.0985
▁hardest	-11.0985
▁spelling	-11.0996
yeah	-11.0997
▁classroom	-11.0998
▁BE	-11.0999
▁inches	-11.1001
are	-11.1004
▁Pretty	-11.1008
▁jealousy	-11.1009
▁danger	-11.1025
Have	-11.1025
▁Nobody	-11.1026
nHe	-11.1036
▁focusing	-11.1036
▁fancy	-11.1041
▁multi	-11.1044
▁Korea	-11.1048
▁alarm	-11.1052
▁sends	-11.1062
ped	-11.1064
▁millions	-11.1069
▁sophomore	-11.1088
▁November	-11.1088
▁mentality	-11.1088
▁guarantee	-11.1094
atheism	-11.1107
▁drawing	-11.111
▁diamond	-11.1119
75	-11.1123
▁paint	-11.1126
▁ID	-11.1152
▁boundaries	-11.1154
▁naive	-11.1156
▁glasses	-11.1158
▁overwhelming	-11.1158
▁goddamn	-11.1159
▁cousins	-11.1165
▁Call	-11.1165
▁machines	-11.1165
nShe	-11.1166
▁criminal	-11.1167
▁seeking	-11.1167
▁flipped	-11.1178
▁equivalent	-11.1178
▁nuclear	-11.1179
▁dedicated	-11.118
qu	-11.1181
▁links	-11.1182
▁Con	-11.1184
▁Catholic	-11.1188
▁traveling	-11.1189
▁sky	-11.119
▁entered	-11.1193
▁soda	-11.1196
especially	-11.1198
▁terribly	-11.12
▁babies	-11.12
▁popped	-11.1201
▁October	-11.1202
▁ping	-11.1203
▁crushed	-11.1212
??	-11.1215
▁esteem	-11.1215
▁artist	-11.1216
▁rushed	-11.1218
▁minions	-11.122
▁faces	-11.1226
▁creative	-11.1226
▁pan	-11.1227
▁bodies	-11.1228
▁treats	-11.1233
▁Could	-11.1239
▁confirm	-11.1246
▁handful	-11.1246
▁timing	-11.1246
▁muscles	-11.125
▁LDR	-11.1252
▁stating	-11.1253
▁region	-11.1256
▁theater	-11.1256
▁redditors	-11.1263
pe	-11.1264
have	-11.1266
▁Ha	-11.1268
▁criticism	-11.127
▁Asian	-11.1271
▁ladder	-11.1272
.....	-11.1274
▁Note	-11.1277
ists	-11.1283
life	-11.1284
▁(2	-11.1294
▁wood	-11.1302
98	-11.1309
▁guitar	-11.1314
dy	-11.1319
eg	-11.1322
▁applying	-11.1322
▁blown	-11.133
▁360	-11.1331
real	-11.1335
▁passionate	-11.1335
▁storm	-11.1338
ver	-11.1339
▁drag	-11.1344
▁None	-11.1347
▁rolls	-11.1352
All	-11.1356
▁international	-11.1358
Because	-11.1361
▁attacked	-11.1362
▁landlord	-11.1363
▁questioning	-11.1365
▁height	-11.1365
▁installed	-11.1374
▁vape	-11.1381
▁owe	-11.1385
▁Suddenly	-11.1386
▁prepare	-11.1393
▁mountain	-11.1394
▁cock	-11.1396
▁liberal	-11.1401
▁tape	-11.1406
▁clothing	-11.1413
▁grass	-11.1414
▁assault	-11.1414
q	-11.1415
▁addicted	-11.1416
▁dirt	-11.1428
▁stores	-11.1437
car	-11.1437
▁masturbate	-11.1441
▁marks	-11.1449
▁bridge	-11.1449
▁$20	-11.1452
▁forms	-11.1455
▁joy	-11.1456
▁Through	-11.1466
▁occasion	-11.1466
son	-11.1467
▁phones	-11.1467
▁meals	-11.1471
other	-11.1477
▁keyboard	-11.148
▁lvl	-11.1485
▁Apple	-11.1485
had	-11.1491
▁officially	-11.1492
▁wasnt	-11.1495
▁harsh	-11.1496
▁pride	-11.1497
▁trigger	-11.1498
▁experiment	-11.1498
▁blunt	-11.1499
ball	-11.15
▁worries	-11.1503
▁York	-11.1503
▁graduating	-11.1503
▁listed	-11.1503
▁experiencing	-11.1504
▁regards	-11.1508
ip	-11.151
▁limits	-11.1511
▁bullet	-11.1517
▁blowing	-11.1517
▁Al	-11.1523
▁twenty	-11.1527
▁Meanwhile	-11.1528
▁Skype	-11.153
▁overreacting	-11.153
▁weekly	-11.1531
ative	-11.1542
▁anytime	-11.1542
▁Life	-11.1546
▁feeding	-11.155
▁engagement	-11.1553
▁root	-11.1564
▁ego	-11.1565
▁tear	-11.1571
▁attending	-11.1572
▁wipe	-11.1573
▁balanced	-11.1574
▁bloody	-11.1579
▁officers	-11.158
ni	-11.1581
▁trained	-11.1584
▁rep	-11.1584
▁citizens	-11.1584
▁skype	-11.1585
▁stretch	-11.1597
Getting	-11.1599
▁custom	-11.1602
▁worthless	-11.1608
AM	-11.1608
▁CD	-11.1614
Ex	-11.1618
▁eight	-11.1622
ris	-11.1622
▁separated	-11.1622
▁crew	-11.1622
▁superior	-11.1624
▁motherboard	-11.1624
▁signals	-11.1626
▁sexuality	-11.1628
▁purely	-11.1629
▁Valve	-11.1634
▁holds	-11.1638
▁Israel	-11.1639
)",	-11.164
di	-11.1648
▁politely	-11.1652
house	-11.1653
▁trial	-11.1668
▁advanced	-11.167
▁satisfied	-11.1673
▁medium	-11.1673
dis	-11.1676
45	-11.1682
▁pages	-11.1684
ile	-11.1686
▁streak	-11.1689
▁ghost	-11.169
people	-11.1695
▁overcome	-11.1701
▁stare	-11.1702
▁largely	-11.1711
▁increases	-11.1718
▁trapped	-11.1721
▁32	-11.1732
!\	-11.1735
mer	-11.174
▁permanent	-11.1741
mp	-11.1743
▁deciding	-11.1743
▁raising	-11.1746
▁orders	-11.1747
io	-11.1747
▁ruining	-11.1748
mail	-11.175
▁existing	-11.1752
▁flowers	-11.176
▁lit	-11.1763
▁thick	-11.1764
▁irrelevant	-11.1767
▁linked	-11.1771
▁pathetic	-11.1771
▁internal	-11.1771
▁bang	-11.1773
▁Power	-11.1774
▁Personally	-11.1777
▁screamed	-11.1779
▁houses	-11.178
▁campaign	-11.1784
▁FOR	-11.1795
▁desperately	-11.1797
▁Silver	-11.1798
too	-11.1806
▁objective	-11.1808
▁frustration	-11.181
▁employer	-11.1811
▁backwards	-11.1816
While	-11.1817
▁lap	-11.1819
still	-11.1824
fi	-11.1829
▁household	-11.1834
ng	-11.1837
▁flew	-11.184
▁March	-11.1846
▁Girl	-11.1846
▁SC	-11.1848
▁highway	-11.1852
▁offering	-11.1856
▁refer	-11.1859
▁whatnot	-11.1863
▁reports	-11.1866
▁hometown	-11.1867
▁rewards	-11.1873
▁suffered	-11.188
net	-11.1881
▁consistent	-11.1887
▁global	-11.1888
▁technical	-11.1888
▁Guy	-11.1897
▁deposit	-11.1904
▁dose	-11.1908
▁Almost	-11.1909
▁stall	-11.1913
▁hobby	-11.1914
▁spends	-11.1918
▁sum	-11.1932
▁FB	-11.1932
▁genuine	-11.1934
▁intent	-11.1938
▁salary	-11.1939
▁unreasonable	-11.1939
▁OR	-11.1942
▁stone	-11.1943
▁backstory	-11.1944
sex	-11.1955
min	-11.1957
▁sweat	-11.1959
▁infection	-11.196
▁contain	-11.1961
ru	-11.1962
rate	-11.1962
▁throws	-11.1964
▁ambulance	-11.1964
▁stun	-11.1967
▁confessed	-11.1967
▁yellow	-11.1968
les	-11.1968
▁difficulty	-11.1969
▁confirmed	-11.1976
▁isnt	-11.1977
▁bully	-11.1979
▁towel	-11.1985
▁dive	-11.1989
▁cigarette	-11.199
▁SSD	-11.1992
▁rear	-11.1993
▁famous	-11.1993
istic	-11.1995
▁meaningful	-11.1995
merely	-11.1995
ey	-11.1995
hr	-11.1999
▁invested	-11.1999
▁educated	-11.2
▁Steve	-11.2011
▁Super	-11.2013
▁grateful	-11.2015
▁3)	-11.2016
▁corporate	-11.2018
▁justice	-11.2018
▁eggs	-11.2019
▁unlike	-11.2021
ide	-11.2024
iness	-11.2037
▁Tuesday	-11.204
▁primarily	-11.204
including	-11.204
▁includes	-11.2041
▁duty	-11.2041
▁bread	-11.2044
▁beside	-11.2045
▁measure	-11.2045
▁whoever	-11.2049
▁flavor	-11.2052
▁signal	-11.2056
▁chase	-11.2056
▁salt	-11.2059
▁openly	-11.2062
▁tolerance	-11.2067
▁sticking	-11.2068
▁butter	-11.2069
▁north	-11.2071
▁op	-11.2074
▁identify	-11.2079
▁aim	-11.2079
▁ridiculously	-11.208
▁rooms	-11.208
▁owners	-11.208
▁judgement	-11.208
▁president	-11.2082
▁sharp	-11.2088
▁devastated	-11.2089
▁Neither	-11.2091
80	-11.2091
▁wore	-11.2094
▁egg	-11.2095
▁sin	-11.2101
▁boobs	-11.2105
law	-11.2106
▁chemical	-11.2111
▁avoiding	-11.2112
▁chosen	-11.2121
▁Currently	-11.2122
vi	-11.2127
▁listened	-11.2128
▁hi	-11.2131
▁classic	-11.2133
▁rip	-11.214
▁Problem	-11.2142
▁severely	-11.2147
▁candy	-11.2147
▁White	-11.2148
▁youtube	-11.2153
Go	-11.2153
▁remained	-11.2158
▁explore	-11.2162
▁river	-11.2164
▁blaming	-11.2164
▁bullied	-11.2164
high	-11.2165
▁intimacy	-11.2165
▁shall	-11.2167
▁inch	-11.217
ke	-11.2171
▁nerf	-11.2172
▁resolve	-11.2173
▁CO	-11.2175
▁worker	-11.2181
▁longest	-11.2184
▁Car	-11.2187
▁tag	-11.2188
▁masturbating	-11.2189
▁Mac	-11.219
▁Jack	-11.219
▁string	-11.219
▁fapping	-11.2192
▁Jon	-11.2204
▁swimming	-11.221
▁internship	-11.2213
▁reputation	-11.2214
girl	-11.2216
▁fantasy	-11.2216
▁lake	-11.222
SS	-11.2221
nIt	-11.2234
▁firm	-11.224
▁PvP	-11.2242
▁Thursday	-11.2242
normal	-11.2243
probably	-11.2243
▁1-2	-11.2245
▁dealer	-11.2247
best	-11.2249
▁motivated	-11.2252
▁trusted	-11.2253
ud	-11.2257
▁apparent	-11.2261
▁continuing	-11.2265
▁applies	-11.2265
.""",	-11.2269
▁eaten	-11.2271
▁affects	-11.2272
▁Friend	-11.2273
▁sand	-11.2284
▁vague	-11.2287
At	-11.2289
▁Amazon	-11.2292
▁temporary	-11.2293
▁French	-11.2293
something	-11.2295
70	-11.2297
▁wreck	-11.2301
▁idiots	-11.2301
▁countless	-11.2318
▁mentioning	-11.2323
▁van	-11.2332
▁Additionally	-11.2343
▁State	-11.2349
▁fap	-11.2351
▁ratio	-11.2354
▁fourth	-11.2355
▁wards	-11.2356
▁demanding	-11.2363
▁responding	-11.2366
▁minimal	-11.2368
▁promptly	-11.237
▁application	-11.237
▁unknown	-11.2371
▁pretending	-11.2372
▁exit	-11.2375
▁inter	-11.2382
▁provides	-11.2383
stop	-11.2385
ab	-11.2388
"")	-11.239
▁odds	-11.2391
▁February	-11.2396
▁delivery	-11.2397
▁platform	-11.2401
▁phrase	-11.2404
▁grind	-11.2407
▁hardcore	-11.2425
:","	-11.243
▁launch	-11.2434
▁toys	-11.2437
▁reduced	-11.244
▁fixing	-11.2443
▁75	-11.2457
60	-11.2458
▁se	-11.2465
▁Vi	-11.2466
▁hop	-11.2469
▁relief	-11.2472
▁atheism	-11.2474
▁formatting	-11.2475
▁religions	-11.2476
rk	-11.2478
▁gate	-11.2495
▁iPhone	-11.25
12	-11.2506
▁punched	-11.2509
▁YOUR	-11.2512
▁rub	-11.2516
▁ceiling	-11.2524
▁funeral	-11.2524
▁insecurities	-11.2524
▁petty	-11.2525
▁voting	-11.2528
Please	-11.2529
▁Shit	-11.2534
▁pace	-11.2534
▁driven	-11.2538
▁blocks	-11.2544
▁dudes	-11.2545
▁bud	-11.2548
▁Therefore	-11.2551
▁billion	-11.2557
▁skins	-11.2558
▁supported	-11.2563
▁stars	-11.2565
▁healing	-11.2569
▁bronze	-11.2577
▁resolution	-11.2577
▁Wednesday	-11.2579
▁arrest	-11.2582
▁LA	-11.2587
ka	-11.2588
Are	-11.2589
▁kicking	-11.2589
▁sooner	-11.2591
▁laughs	-11.2598
▁irrational	-11.2599
▁recommended	-11.2602
▁atmosphere	-11.2603
▁unnecessary	-11.2603
▁Thus	-11.2603
▁replacement	-11.2605
▁29	-11.2606
▁counselor	-11.2608
▁Remember	-11.2611
▁BS	-11.2611
▁IMO	-11.2613
GF	-11.2617
▁feature	-11.262
▁errors	-11.2626
▁confusion	-11.2629
▁lesbian	-11.2631
▁topics	-11.2631
▁scar	-11.2633
▁humanity	-11.2634
▁par	-11.2634
▁recovery	-11.2636
▁cuddle	-11.2643
▁4-5	-11.2645
▁settled	-11.2652
▁resulted	-11.2655
▁breakdown	-11.266
▁Le	-11.2661
▁Master	-11.2661
▁orange	-11.2662
▁pointless	-11.2675
tion	-11.2676
▁gamer	-11.2676
▁1:	-11.2679
▁horribly	-11.2683
▁swing	-11.2683
▁PA	-11.2686
▁entry	-11.2687
▁guessing	-11.2698
gg	-11.27
▁RAM	-11.2703
▁represent	-11.2704
100	-11.2708
▁hat	-11.2712
▁partially	-11.2713
▁Na	-11.2713
▁affair	-11.2714
▁returning	-11.2715
▁established	-11.2718
▁holes	-11.2718
▁successfully	-11.2722
creasingly	-11.2732
▁racism	-11.2738
▁Bill	-11.274
▁Sex	-11.2741
ery	-11.2743
40	-11.2743
▁Microsoft	-11.2744
▁articles	-11.2744
lu	-11.275
▁99	-11.275
top	-11.2756
▁climbing	-11.2757
▁psychological	-11.2759
hether	-11.2761
▁biological	-11.2761
▁wealth	-11.2763
▁prank	-11.2765
▁exhausted	-11.2766
▁Canadian	-11.2769
▁collect	-11.277
▁traits	-11.277
▁(1	-11.277
▁presented	-11.2772
ups	-11.2777
▁Legends	-11.2784
▁unusual	-11.2785
hand	-11.2786
▁blank	-11.2789
▁utility	-11.279
▁basketball	-11.279
0\	-11.2793
▁ears	-11.2793
▁recognized	-11.2794
▁exposed	-11.2797
land	-11.2798
▁coast	-11.2799
▁existed	-11.2802
▁LP	-11.2804
▁beers	-11.2805
▁label	-11.2807
▁Up	-11.2813
ger	-11.2816
▁providing	-11.2817
▁authority	-11.2817
▁wrapped	-11.2819
▁cardio	-11.2821
▁coke	-11.2821
▁granted	-11.2827
▁fruit	-11.2834
▁l	-11.2835
▁outcome	-11.2842
▁nail	-11.2843
▁gorgeous	-11.2845
▁lowest	-11.2848
Alright	-11.285
first	-11.285
▁wishes	-11.2853
▁150	-11.2854
▁coach	-11.2859
▁refund	-11.2859
▁pros	-11.2868
▁gamers	-11.287
▁choosing	-11.2872
▁proven	-11.2873
11	-11.2874
▁Imagine	-11.2877
room	-11.2879
...\	-11.288
▁Unless	-11.2884
nAnd	-11.2885
▁stoned	-11.2888
▁epic	-11.289
ron	-11.2892
▁backpack	-11.2893
▁mods	-11.2897
▁description	-11.2905
▁Around	-11.2905
▁Bob	-11.291
▁stays	-11.2913
▁packs	-11.2915
RE	-11.2917
▁Tom	-11.2921
since	-11.2926
▁duo	-11.2928
▁camping	-11.2929
▁consumer	-11.2938
also	-11.2939
▁lacking	-11.2941
vo	-11.2946
▁Ma	-11.2949
▁completed	-11.2949
▁Hi	-11.2949
ray	-11.2952
▁discover	-11.2954
▁maintenance	-11.2956
▁funds	-11.296
▁enjoyable	-11.2963
▁quest	-11.2963
relationships	-11.2964
▁en	-11.2972
▁creates	-11.2973
▁LCS	-11.2983
▁shifts	-11.2984
▁visible	-11.2985
▁opens	-11.2987
▁spray	-11.299
▁insult	-11.2994
▁appeared	-11.2997
▁ive	-11.2998
ley	-11.2999
▁concrete	-11.3007
▁120	-11.3011
ow	-11.3011
▁Tell	-11.3014
▁struggled	-11.3014
▁affecting	-11.3015
▁snap	-11.3021
▁genetic	-11.3021
ck	-11.3022
▁poke	-11.3025
▁compete	-11.3037
▁verbally	-11.3039
▁stared	-11.304
▁exams	-11.3044
▁expansion	-11.3045
▁depth	-11.3054
ak	-11.3054
▁intentionally	-11.3066
▁FWB	-11.3067
▁400	-11.307
▁digital	-11.307
▁mild	-11.3071
▁draft	-11.3075
▁waves	-11.3076
▁proposed	-11.3078
-1	-11.3081
▁pub	-11.3082
▁involve	-11.3084
▁poster	-11.3086
▁pin	-11.3086
▁noticing	-11.3091
▁advise	-11.3092
▁complaints	-11.3092
▁laughter	-11.3092
▁driveway	-11.3094
▁Hard	-11.3094
▁h	-11.3096
▁emotion	-11.3098
▁ties	-11.3098
cu	-11.31
▁Little	-11.3105
ti	-11.3108
▁usage	-11.3112
ins	-11.3116
▁everytime	-11.3118
▁la	-11.3118
▁begging	-11.3118
▁bare	-11.312
▁obsessed	-11.3122
▁vice	-11.3123
think	-11.3129
IT	-11.3135
▁Sam	-11.3136
▁ARE	-11.3136
▁monthly	-11.3139
▁hid	-11.3144
ho	-11.3153
▁Give	-11.3158
▁gains	-11.316
▁appeal	-11.3163
▁retail	-11.3163
▁needing	-11.3164
both	-11.3168
▁dodge	-11.3169
Get	-11.317
▁mission	-11.3172
bs	-11.3173
▁ignorance	-11.3174
▁struck	-11.3174
.00	-11.3175
▁counting	-11.3181
▁z	-11.3183
▁WTF	-11.3192
▁engineer	-11.3195
▁defined	-11.3196
ard	-11.3196
▁purposes	-11.3202
▁entertainment	-11.3202
▁youth	-11.3203
bar	-11.3204
▁housing	-11.3205
▁soccer	-11.3205
▁affectionate	-11.3208
▁Advice	-11.3208
▁ON	-11.3211
▁supervisor	-11.3213
▁adds	-11.3217
▁spin	-11.3226
gen	-11.3227
▁figuring	-11.323
▁messaging	-11.323
level	-11.3232
▁corporations	-11.3233
▁backed	-11.3233
▁Paul	-11.3234
▁transition	-11.3239
▁spirit	-11.3241
▁knees	-11.3252
▁images	-11.3252
▁anal	-11.3253
▁colors	-11.3254
▁external	-11.3256
▁define	-11.3256
▁recover	-11.3261
▁punished	-11.3266
CK	-11.3269
board	-11.3271
▁q	-11.3272
Last	-11.3273
▁micro	-11.3277
▁loses	-11.3282
▁remains	-11.3285
▁elevator	-11.3286
▁baseball	-11.3287
▁stepped	-11.3287
▁AS	-11.3298
▁2000	-11.3299
yo	-11.33
▁lame	-11.3305
▁tanks	-11.3307
▁dig	-11.3308
▁statements	-11.331
▁cuts	-11.3318
▁surrounded	-11.3318
▁abandoned	-11.3321
▁perception	-11.3328
▁spam	-11.3328
nThis	-11.3338
▁England	-11.3343
▁Wars	-11.3348
▁btw	-11.335
▁Come	-11.3355
▁honor	-11.3355
▁quietly	-11.3358
br	-11.3365
▁maximum	-11.3372
▁ocean	-11.3372
ten	-11.3377
▁Ro	-11.3386
▁San	-11.3387
▁controller	-11.3387
ga	-11.3388
▁holy	-11.3388
▁resulting	-11.3391
▁healthcare	-11.3401
▁inner	-11.3405
sorry	-11.341
▁propose	-11.3413
▁cooldown	-11.3417
▁til	-11.3422
▁blamed	-11.3424
▁slipped	-11.3429
▁referring	-11.3429
▁argued	-11.343
▁smelled	-11.3432
▁jaw	-11.3433
▁avoided	-11.3433
shit	-11.3434
▁lo	-11.3436
▁adjust	-11.3437
▁shouting	-11.3437
based	-11.3439
▁puke	-11.3442
▁assumption	-11.3444
▁served	-11.3452
▁safely	-11.3455
▁festival	-11.3458
▁justified	-11.346
▁solely	-11.3461
▁models	-11.3461
US	-11.3463
kg	-11.3467
Long	-11.3469
▁nightmare	-11.3475
▁deserved	-11.3484
▁browsing	-11.3486
take	-11.3489
ero	-11.3491
▁disappeared	-11.3494
▁briefly	-11.3494
▁consoles	-11.3494
▁raw	-11.3495
▁yells	-11.3498
fer	-11.3502
▁blanket	-11.3502
500	-11.351
▁$3	-11.3514
▁capacity	-11.3515
▁rambling	-11.3515
▁gather	-11.3523
▁realistic	-11.3523
esteem	-11.3525
▁lungs	-11.3527
IN	-11.3532
▁shoulders	-11.3535
▁di	-11.3535
ability	-11.3535
▁pump	-11.3536
▁fees	-11.3537
▁methods	-11.3538
▁EU	-11.3544
▁swim	-11.3544
▁underneath	-11.3544
che	-11.3544
▁neutral	-11.3546
▁friendships	-11.3551
▁Lately	-11.3552
▁tail	-11.3554
▁efforts	-11.3555
▁finals	-11.3558
▁Team	-11.3563
its	-11.3563
▁forest	-11.3566
▁$50	-11.3569
▁hesitant	-11.3573
▁loaded	-11.3579
▁House	-11.358
▁Ask	-11.3584
▁downvoted	-11.3589
▁doubts	-11.3591
▁vet	-11.3595
ze	-11.3598
love	-11.3602
▁searched	-11.3603
month	-11.3605
▁carpet	-11.3605
▁logged	-11.3606
▁entitled	-11.3606
▁bosses	-11.3611
ology	-11.3612
▁declined	-11.3615
▁politicians	-11.3616
▁sized	-11.3618
▁monster	-11.3623
▁strain	-11.3628
nBut	-11.3632
▁anniversary	-11.3633
▁Three	-11.3641
▁expand	-11.3641
▁HS	-11.3649
▁dozen	-11.365
ium	-11.365
▁suggestion	-11.3652
▁Nope	-11.3653
▁sustain	-11.3657
pre	-11.3659
▁approaching	-11.3661
▁snapped	-11.3661
▁steady	-11.3661
▁removing	-11.3661
▁Mike	-11.3662
▁resume	-11.3663
▁surely	-11.3666
▁fits	-11.3669
▁developers	-11.367
gi	-11.3671
▁brush	-11.3673
ically	-11.3673
▁Li	-11.3678
▁slower	-11.3682
▁spots	-11.3687
▁sandwich	-11.3689
▁honesty	-11.369
▁jeans	-11.369
▁improving	-11.3692
▁sacrifice	-11.3694
▁Blizzard	-11.3696
▁king	-11.3699
▁celebrate	-11.3704
▁drawn	-11.3709
▁damaged	-11.3713
▁plug	-11.3715
▁tournaments	-11.3723
▁apologizing	-11.3725
▁SHIT	-11.3725
▁MS	-11.3728
▁drain	-11.3728
again	-11.3731
▁forum	-11.3733
▁messy	-11.3744
Went	-11.3745
▁flaws	-11.3749
▁breathe	-11.3752
▁foods	-11.3752
post	-11.3754
▁annoy	-11.3756
▁beta	-11.3764
▁frozen	-11.3766
▁fitness	-11.3767
▁lighter	-11.3768
▁loudly	-11.3768
▁apology	-11.3779
▁Normally	-11.3786
▁deliver	-11.3788
very	-11.3789
About	-11.3791
).\	-11.3792
▁CAN	-11.3792
▁sneak	-11.3793
ible	-11.3801
▁connections	-11.3802
make	-11.3806
▁author	-11.3808
▁HAVE	-11.3809
▁latter	-11.3809
▁Thankfully	-11.3809
▁philosophy	-11.3811
▁shoe	-11.3811
▁yo	-11.3818
▁begun	-11.3826
▁weigh	-11.3829
▁gaining	-11.3832
▁females	-11.3836
▁grandpa	-11.3839
▁shipping	-11.3839
▁Florida	-11.384
▁minority	-11.3841
ons	-11.3841
▁boyfriends	-11.3843
▁Russia	-11.3858
▁entering	-11.3867
▁practical	-11.3869
▁reliable	-11.3869
▁responds	-11.3869
▁Sarah	-11.3871
▁Due	-11.3873
▁succeed	-11.3877
▁calmly	-11.3884
▁grasp	-11.3886
▁attacking	-11.3887
▁runes	-11.3896
▁marketing	-11.3897
▁television	-11.3899
▁nine	-11.3902
▁NoFap	-11.3903
workers	-11.3906
▁threads	-11.3907
▁records	-11.3908
▁misses	-11.3908
▁needy	-11.3909
edit	-11.391
▁Love	-11.3912
▁handled	-11.3918
▁wtf	-11.3919
▁bastard	-11.3921
pa	-11.3921
set	-11.3922
Met	-11.393
▁print	-11.3932
▁raging	-11.3933
▁ho	-11.3934
▁busted	-11.3937
▁deaths	-11.3939
usually	-11.3941
▁productive	-11.3948
ja	-11.3953
35	-11.3953
▁European	-11.3956
▁discussions	-11.3957
ical	-11.396
▁programming	-11.3963
▁assistant	-11.3964
▁ect	-11.3971
Basically	-11.3972
▁Ho	-11.3973
▁span	-11.3976
▁hoped	-11.3981
▁mentions	-11.3983
▁fianc	-11.399
ade	-11.399
▁plants	-11.3994
:",	-11.3995
▁addict	-11.3995
▁$500	-11.3999
▁headphones	-11.4
▁interactions	-11.4008
gf	-11.4013
▁decades	-11.4014
▁command	-11.4016
▁puppy	-11.402
▁DPS	-11.4021
▁pink	-11.4024
▁offense	-11.4024
▁respectful	-11.4031
▁hurtful	-11.4037
▁belong	-11.4037
▁trap	-11.404
▁subtle	-11.4051
▁cooler	-11.4052
▁betrayed	-11.4052
▁peak	-11.4055
▁legit	-11.4057
▁Whatever	-11.4063
book	-11.4063
▁latest	-11.4068
▁mo	-11.4068
▁95	-11.407
▁devices	-11.4074
▁storage	-11.4081
▁peers	-11.4093
▁assured	-11.4094
au	-11.4094
▁maps	-11.4104
▁couples	-11.411
▁statistics	-11.4111
▁guest	-11.4111
▁removal	-11.4112
▁percent	-11.4112
▁cuddling	-11.4113
▁catching	-11.4114
▁nicely	-11.4114
▁Jewish	-11.4114
▁regard	-11.4115
state	-11.4117
▁seats	-11.4119
▁insanely	-11.4124
▁bottles	-11.4126
▁matched	-11.4129
▁Islam	-11.4133
▁wire	-11.4136
name	-11.4136
▁Spanish	-11.4142
▁audio	-11.4142
▁studied	-11.4142
▁tour	-11.4142
▁shallow	-11.4142
▁dynamic	-11.4145
▁Stop	-11.415
▁supposedly	-11.4153
▁scratch	-11.4154
▁hp	-11.4155
▁bra	-11.4156
version	-11.4157
▁leaning	-11.4161
▁rocks	-11.4165
▁males	-11.4172
▁Him	-11.4172
▁Ben	-11.4173
▁brilliant	-11.4173
▁custody	-11.4173
▁resistance	-11.4173
▁classmates	-11.4177
▁Anything	-11.4178
▁pitch	-11.418
▁West	-11.418
▁elements	-11.4183
late	-11.4191
▁overseas	-11.4192
▁faced	-11.4192
iv	-11.4195
▁teen	-11.4195
▁complained	-11.4197
▁crossed	-11.4198
▁furious	-11.42
except	-11.4204
▁Mark	-11.4204
▁ha	-11.4205
▁cashier	-11.4205
God	-11.4215
▁explains	-11.4218
Good	-11.4219
▁checks	-11.4222
▁visual	-11.4224
▁India	-11.4228
▁depend	-11.423
▁academic	-11.4232
▁communicating	-11.4236
▁$200	-11.4236
ably	-11.4237
▁lecture	-11.4239
lb	-11.4241
▁hangout	-11.4246
▁locker	-11.4248
▁bitter	-11.4249
▁largest	-11.425
▁Mid	-11.4254
▁wrap	-11.4261
▁prescription	-11.4262
▁EA	-11.4264
▁tuition	-11.4266
▁stacks	-11.4277
▁shadow	-11.4278
▁Blue	-11.4278
▁dota	-11.4281
▁hating	-11.4282
▁involves	-11.4286
.""\	-11.4287
▁heaven	-11.429
▁Africa	-11.4291
▁policies	-11.4298
▁ANY	-11.43
▁James	-11.43
▁losses	-11.4306
▁exclusively	-11.4307
boy	-11.4308
▁carefully	-11.4308
▁GT	-11.4315
16	-11.4318
▁wing	-11.4325
▁curiosity	-11.4329
▁improvement	-11.4334
▁suggests	-11.4336
▁biased	-11.4337
▁loop	-11.4337
▁xbox	-11.4341
▁forums	-11.4343
OR	-11.4345
▁insulting	-11.4345
ES	-11.4345
▁Want	-11.4349
▁smiled	-11.4349
▁clients	-11.4355
▁thumb	-11.4355
Man	-11.4357
▁delicious	-11.436
▁revenge	-11.4362
▁nerd	-11.4365
▁tie	-11.4368
ual	-11.4369
▁lifetime	-11.437
▁consideration	-11.4371
▁WHAT	-11.4375
Like	-11.4377
▁ONE	-11.4378
▁shorter	-11.4384
▁encouraged	-11.4385
▁Card	-11.4388
▁trans	-11.4389
▁squat	-11.4393
▁cunt	-11.4394
▁controlled	-11.4395
▁christian	-11.4398
▁differ	-11.4399
▁directions	-11.4403
▁grabs	-11.4404
▁hyper	-11.441
▁250	-11.4412
▁consist	-11.4418
▁trail	-11.4418
ens	-11.4421
▁spider	-11.4422
▁finances	-11.4422
made	-11.4424
▁sticks	-11.4426
▁chasing	-11.4427
▁Bad	-11.4428
▁disabled	-11.4429
▁2014	-11.443
GO	-11.4434
▁pic	-11.4442
ged	-11.4449
ack	-11.4451
▁spawn	-11.4453
▁favourite	-11.4455
▁wow	-11.4456
▁Post	-11.4458
▁adopted	-11.4461
▁ma	-11.4466
▁bull	-11.4466
▁materials	-11.4486
▁straw	-11.4487
▁infinite	-11.4488
▁manipulative	-11.4488
▁selection	-11.4489
▁suspended	-11.4489
▁employment	-11.449
▁trend	-11.4494
▁luckily	-11.4494
▁outright	-11.4496
▁iron	-11.4502
date	-11.4503
Back	-11.4504
▁lobby	-11.4507
▁3.5	-11.4507
▁crit	-11.4507
▁bound	-11.4507
cent	-11.4509
▁guaranteed	-11.451
▁targets	-11.4512
den	-11.4513
▁AMA	-11.4514
▁wrist	-11.4518
▁promotion	-11.4519
▁tripping	-11.4521
▁cuz	-11.4526
▁notion	-11.4528
▁beast	-11.4529
▁Too	-11.4533
▁lessons	-11.454
▁Lee	-11.4541
▁Korean	-11.4546
.""","	-11.4549
▁comparing	-11.4551
▁dragged	-11.4551
▁jacket	-11.4552
▁pound	-11.4553
▁votes	-11.4566
▁participate	-11.4567
Should	-11.4568
▁funding	-11.4571
▁Source	-11.4571
ied	-11.4571
▁threats	-11.4573
▁weights	-11.4574
▁construction	-11.4584
▁East	-11.4585
▁mechanic	-11.4588
▁surrounding	-11.4589
▁screams	-11.4591
▁intend	-11.4596
whatever	-11.4601
▁objects	-11.4602
▁Watch	-11.461
▁downvote	-11.4611
va	-11.4613
▁Furthermore	-11.4616
▁cancelled	-11.4616
▁crisis	-11.4617
▁principle	-11.4617
▁Eve	-11.4621
▁creatures	-11.4621
▁revealed	-11.4623
▁bird	-11.4623
▁exchanged	-11.4626
▁crimes	-11.463
▁relaxed	-11.4632
▁trolls	-11.4633
▁earned	-11.4636
▁bond	-11.4637
▁opponents	-11.4642
▁remote	-11.4644
▁(3	-11.4644
▁agency	-11.4648
▁paperwork	-11.4649
▁laning	-11.4651
▁exes	-11.4653
▁singing	-11.466
▁exercises	-11.4665
▁dicks	-11.4666
▁angle	-11.4672
night	-11.4673
▁complaint	-11.4677
▁masturbation	-11.4683
▁rope	-11.4684
▁realization	-11.4685
ries	-11.4686
▁twist	-11.4692
▁tap	-11.4696
▁nap	-11.4701
▁victims	-11.4702
▁plat	-11.4707
▁pursuing	-11.4713
▁fridge	-11.4713
▁Ta	-11.4713
▁terrifying	-11.4714
▁district	-11.4714
▁verbal	-11.4715
▁survival	-11.4716
▁priest	-11.4719
▁capital	-11.4721
▁obtain	-11.4737
mostly	-11.4737
low	-11.4738
▁dare	-11.4741
▁cannabis	-11.4746
▁wisdom	-11.4746
▁patience	-11.4746
▁unemployed	-11.4746
lock	-11.4748
lic	-11.4751
▁garden	-11.4752
▁Us	-11.4752
▁streets	-11.4755
Who	-11.4758
▁scheduled	-11.4763
▁hint	-11.4767
▁jumps	-11.4771
▁behold	-11.4773
▁curve	-11.4774
▁grabbing	-11.4778
▁liar	-11.4779
ever	-11.4785
▁commented	-11.4788
19	-11.4792
ious	-11.4794
▁tub	-11.4796
▁junglers	-11.4798
▁cents	-11.4801
▁Work	-11.4801
▁comic	-11.4807
▁clubs	-11.4808
▁HD	-11.4808
▁loads	-11.481
▁victory	-11.4812
▁Regardless	-11.4814
▁paycheck	-11.4816
▁websites	-11.482
▁Muslim	-11.4822
▁rounds	-11.4824
▁Magic	-11.4824
▁punish	-11.4827
Took	-11.4827
▁compliment	-11.4827
ea	-11.4832
nNow	-11.4833
▁bush	-11.4834
▁badass	-11.4836
▁coat	-11.4837
nMe	-11.4843
▁utter	-11.4845
ice	-11.4846
▁rejection	-11.4846
▁remotely	-11.4849
▁Halo	-11.4849
▁maintaining	-11.4849
od	-11.4853
▁election	-11.4855
▁According	-11.4855
▁covers	-11.4857
▁sing	-11.486
▁teenagers	-11.4862
▁Years	-11.4874
▁duration	-11.4878
SO	-11.4879
Upon	-11.4881
▁disgusted	-11.4884
▁trailer	-11.4884
▁Bar	-11.489
▁HR	-11.4891
▁Mind	-11.4892
▁suggesting	-11.4893
▁crashed	-11.4895
sp	-11.491
▁involving	-11.4911
▁century	-11.4911
▁slut	-11.4921
▁businesses	-11.4927
▁couldnt	-11.4928
▁Bee	-11.4929
▁Fire	-11.4932
▁DC	-11.4935
fucking	-11.4936
▁instances	-11.494
▁beneficial	-11.4944
▁username	-11.4944
ified	-11.4946
▁scam	-11.4946
OK	-11.4946
▁wars	-11.495
▁filling	-11.495
▁Actually	-11.495
▁rifle	-11.4951
▁minion	-11.4952
face	-11.4955
▁Pre	-11.4956
distance	-11.4963
▁requirements	-11.4964
▁groceries	-11.4977
▁respected	-11.4978
trees	-11.4978
▁Netflix	-11.498
▁grip	-11.4981
▁purple	-11.4981
▁serving	-11.4982
cap	-11.4983
▁:)"	-11.4987
self	-11.4988
▁norm	-11.499
▁rings	-11.4995
▁electric	-11.4995
▁director	-11.4999
ward	-11.5
▁resort	-11.5002
▁vaping	-11.5011
▁AA	-11.5012
▁passenger	-11.5017
▁Mary	-11.5017
▁PMO	-11.502
▁bio	-11.5023
▁USB	-11.5024
▁fundamental	-11.5026
hold	-11.5035
▁shelter	-11.5036
▁2012	-11.5038
2,	-11.5044
▁entrance	-11.5045
▁diagnosis	-11.5047
▁reasonably	-11.5048
▁sauce	-11.5049
▁Besides	-11.5049
▁Feel	-11.505
▁void	-11.5052
▁island	-11.5053
▁awareness	-11.5055
▁films	-11.5056
wi	-11.506
▁def	-11.5061
▁sir	-11.5063
▁implement	-11.5068
PS	-11.5069
▁Going	-11.507
▁visits	-11.507
AR	-11.5078
▁initiated	-11.5078
▁smiling	-11.5079
ain	-11.508
▁analysis	-11.5081
▁WAS	-11.5082
▁teens	-11.5084
▁port	-11.5085
nIf	-11.5085
▁virus	-11.5087
▁organized	-11.5088
▁division	-11.5088
▁idk	-11.5089
▁Iraq	-11.5094
▁sh	-11.5096
▁wouldnt	-11.5097
▁reverse	-11.5097
▁formed	-11.5098
▁ch	-11.5101
▁temper	-11.5107
▁defeat	-11.511
▁libido	-11.5112
▁christmas	-11.5112
▁NYC	-11.5113
▁psychiatrist	-11.5113
▁explicitly	-11.5115
▁British	-11.5117
▁nerve	-11.512
▁exotic	-11.512
▁witnessed	-11.512
▁surprisingly	-11.512
▁Consider	-11.5122
▁wished	-11.5123
▁secondary	-11.5124
▁snowball	-11.5126
▁hip	-11.5131
▁Play	-11.5143
▁agent	-11.5143
▁tits	-11.5146
▁nonsense	-11.5147
▁thoroughly	-11.5148
ana	-11.5148
▁chunk	-11.515
▁located	-11.515
De	-11.5156
nA	-11.5157
ub	-11.5157
▁Dark	-11.5158
▁partying	-11.5158
▁west	-11.5164
▁resolved	-11.5168
▁bath	-11.5169
▁le	-11.5171
▁covering	-11.5172
▁HDD	-11.518
▁HUGE	-11.5181
▁Naturally	-11.5181
▁PSU	-11.5182
▁Act	-11.5188
▁wealthy	-11.5188
▁expression	-11.5189
▁expert	-11.5192
▁cleared	-11.5194
▁hence	-11.5196
▁menu	-11.5209
Guy	-11.521
▁branch	-11.5213
▁shorts	-11.5214
▁charity	-11.5215
▁France	-11.5215
▁Church	-11.5218
▁downtown	-11.522
should	-11.5221
▁na	-11.5224
▁folder	-11.5225
▁substance	-11.5225
mph	-11.5231
ect	-11.5231
Throwaway	-11.5236
pot	-11.5238
▁shove	-11.5239
▁minded	-11.5243
▁newer	-11.5243
▁AC	-11.5247
▁dunno	-11.5249
▁quitting	-11.5253
▁speaker	-11.5253
▁cloud	-11.5253
▁sample	-11.5258
▁lag	-11.526
lin	-11.526
▁beforehand	-11.5261
▁jokingly	-11.5261
looking	-11.5269
Reddit	-11.527
▁answering	-11.5278
▁Hopefully	-11.5289
ster	-11.529
▁Da	-11.529
ations	-11.5294
▁redditor	-11.5296
▁ditch	-11.5297
▁overnight	-11.5298
wise	-11.5298
mid	-11.5301
▁fails	-11.5316
▁Chicago	-11.5318
▁legendary	-11.5318
▁kidding	-11.5319
▁transferred	-11.5319
▁overwhelmed	-11.532
▁bubble	-11.5322
▁Ti	-11.5323
▁prescribed	-11.5323
▁sounding	-11.5325
▁union	-11.5329
▁Lots	-11.5331
▁Doesn	-11.5333
▁joining	-11.5333
▁gang	-11.5336
Maybe	-11.534
▁patients	-11.5353
▁WITH	-11.5353
▁begged	-11.5353
▁makeup	-11.5354
TS	-11.5357
▁hatred	-11.5357
▁backyard	-11.5357
▁strictly	-11.536
▁presentation	-11.536
▁border	-11.5365
▁delay	-11.5367
▁repeated	-11.5368
▁borrow	-11.5369
▁landing	-11.5371
▁apple	-11.5371
win	-11.5372
▁tho	-11.5375
around	-11.5376
▁sensation	-11.5376
..."	-11.5377
Co	-11.5379
▁destroying	-11.5384
▁pressed	-11.5385
▁inevitable	-11.5388
▁stance	-11.5388
""\	-11.539
!).	-11.5392
▁injured	-11.5392
▁utterly	-11.5392
▁western	-11.5397
▁childish	-11.5398
▁assignment	-11.5402
▁insists	-11.5407
▁managers	-11.5409
▁WE	-11.5409
▁altogether	-11.5423
▁ads	-11.5427
▁craft	-11.543
▁Ba	-11.5433
▁inform	-11.5433
▁output	-11.5437
sexual	-11.5438
▁CA	-11.5443
▁bones	-11.5446
New	-11.5448
▁bias	-11.5449
▁sa	-11.5454
▁cruel	-11.5457
▁challenging	-11.5458
▁LSD	-11.5458
▁revenue	-11.5458
▁tables	-11.5458
▁ganks	-11.5459
ane	-11.5459
▁coverage	-11.5459
▁pm	-11.546
▁tattoo	-11.5461
▁trading	-11.5461
▁RP	-11.5462
rant	-11.5465
▁Air	-11.5466
▁gods	-11.5466
▁afk	-11.5467
Most	-11.5477
▁harass	-11.5478
▁RA	-11.5481
ised	-11.5482
▁updates	-11.5483
▁knocking	-11.5489
▁attorney	-11.5493
▁simultaneously	-11.5493
▁browser	-11.5502
▁tooth	-11.5502
▁Within	-11.5511
▁loot	-11.5512
▁breasts	-11.5512
▁east	-11.5513
▁formal	-11.5517
mb	-11.5519
Even	-11.5521
▁reactions	-11.5523
▁unfortunate	-11.5524
▁vulnerable	-11.5528
▁importance	-11.5528
▁romance	-11.5529
▁minds	-11.5531
▁healthier	-11.5531
▁Granted	-11.5532
ep	-11.5537
▁bin	-11.5538
▁Jim	-11.5539
▁accent	-11.5541
▁College	-11.5541
uff	-11.5545
▁teamfight	-11.5549
▁updated	-11.5553
▁volunteer	-11.5559
▁blade	-11.5561
▁towers	-11.5562
yr	-11.5562
?).	-11.5563
▁beauty	-11.5564
▁elaborate	-11.5564
▁oblivious	-11.5564
▁bipolar	-11.5564
▁sidewalk	-11.5565
▁nofap	-11.5568
▁David	-11.5568
▁assistance	-11.5571
▁switching	-11.5575
▁fears	-11.5577
social	-11.5587
▁lawn	-11.5597
▁returns	-11.5598
▁London	-11.5599
▁disaster	-11.5599
▁plugged	-11.56
▁ONLY	-11.56
▁CEO	-11.5602
▁tire	-11.5606
▁Vegas	-11.5606
▁whore	-11.5606
▁soldiers	-11.5608
▁crushing	-11.5609
▁rice	-11.561
▁31	-11.5617
non	-11.562
On	-11.5625
▁Men	-11.5626
▁questioned	-11.5629
13	-11.5629
gar	-11.5632
▁genius	-11.5634
▁excitement	-11.5635
▁heartbroken	-11.5636
▁ram	-11.5636
▁presents	-11.5641
ked	-11.5641
▁permanently	-11.5641
▁Video	-11.5644
▁bullying	-11.5653
▁adventure	-11.5657
▁disappear	-11.5663
look	-11.5665
▁obese	-11.5671
▁fist	-11.5672
▁convincing	-11.5674
▁lips	-11.5674
▁incorrect	-11.5674
▁disrespectful	-11.5675
▁Light	-11.5679
▁Science	-11.5683
"""	-11.5686
▁laner	-11.5686
LE	-11.5692
▁boner	-11.5692
cool	-11.5697
▁sessions	-11.57
▁tastes	-11.5702
ily	-11.5705
▁cooked	-11.5705
▁spectrum	-11.5707
▁WILL	-11.5707
▁ALWAYS	-11.5709
call	-11.571
▁judging	-11.571
▁Somehow	-11.571
▁enjoys	-11.5711
ff	-11.5715
Or	-11.5722
ose	-11.5737
▁adapt	-11.5743
▁devil	-11.5743
▁EVERY	-11.5743
▁cons	-11.5744
▁gravity	-11.5746
▁platonic	-11.5747
▁TSM	-11.5748
mi	-11.5749
▁impressed	-11.575
▁sadly	-11.5751
za	-11.5751
▁Su	-11.5751
▁booked	-11.5751
▁document	-11.5753
▁numb	-11.5757
▁LOVE	-11.5758
▁album	-11.5758
▁spit	-11.5763
▁breast	-11.5763
▁Find	-11.5767
▁hunter	-11.5771
?!""	-11.5779
run	-11.5779
▁damned	-11.5781
reddit	-11.5784
▁Blood	-11.5786
ther	-11.5789
▁twin	-11.579
▁handling	-11.5791
ale	-11.5793
▁tab	-11.5794
▁sc	-11.5797
▁tent	-11.5798
▁oldest	-11.5798
▁thanked	-11.5802
▁upcoming	-11.5807
▁understandable	-11.5808
▁promises	-11.5808
-2	-11.5811
▁BC	-11.5812
▁stubborn	-11.5815
▁furniture	-11.5816
▁inviting	-11.5816
TH	-11.5816
▁tendency	-11.5816
▁cs	-11.5817
▁smells	-11.5817
▁Pi	-11.5819
▁Use	-11.5821
▁dramatic	-11.5821
▁distracted	-11.5822
▁satisfying	-11.5826
▁disk	-11.5828
▁skilled	-11.5832
▁printer	-11.5838
▁attended	-11.5839
▁bulk	-11.5843
▁reject	-11.5846
▁absurd	-11.5847
▁pleasant	-11.5848
▁Russian	-11.5849
▁communities	-11.5852
▁generic	-11.5852
▁DLC	-11.5852
▁restroom	-11.5855
▁intellectual	-11.5856
▁FPS	-11.586
▁tasks	-11.5861
▁arena	-11.5863
▁router	-11.5866
▁ta	-11.587
▁decline	-11.5873
▁commercial	-11.5874
▁solar	-11.5874
▁Old	-11.5879
▁bend	-11.5879
ug	-11.5881
2:	-11.5882
used	-11.5885
▁rubbing	-11.5889
▁unrelated	-11.589
▁isolated	-11.5893
▁scan	-11.5895
▁awkwardly	-11.5896
▁HE	-11.5898
▁contacting	-11.5898
▁extend	-11.5902
▁accomplish	-11.5902
▁secretly	-11.5904
▁fluid	-11.5907
lly	-11.5908
▁hormones	-11.5909
▁po	-11.5912
▁ski	-11.5912
▁reporting	-11.5916
unless	-11.5917
▁vocal	-11.5926
▁retirement	-11.5926
Now	-11.5926
▁reviews	-11.5927
▁wondered	-11.5934
▁talent	-11.5936
▁stupidity	-11.5936
▁cage	-11.5938
▁bitching	-11.5945
▁calorie	-11.595
need	-11.5961
▁psychologist	-11.5963
▁Tinder	-11.5963
▁gradually	-11.5964
▁frequency	-11.5965
▁submit	-11.5966
▁beaten	-11.5968
▁washing	-11.5973
aw	-11.5973
talk	-11.5973
▁dear	-11.5974
▁hunt	-11.5976
ner	-11.5977
▁agrees	-11.5978
▁Che	-11.598
▁procedure	-11.5982
▁tube	-11.5998
▁600	-11.5998
▁generous	-11.6
▁mobility	-11.6
▁motor	-11.6
▁Santa	-11.6003
▁Christ	-11.6006
while	-11.6008
ue	-11.6012
▁theme	-11.6016
▁consume	-11.6016
▁assumptions	-11.6017
▁su	-11.6028
ple	-11.6031
▁roads	-11.6032
▁patterns	-11.6032
AL	-11.6039
▁creation	-11.6039
kin	-11.6041
▁ancient	-11.6041
▁worthy	-11.6043
fire	-11.6047
▁rig	-11.6049
▁expense	-11.6057
▁mask	-11.6062
ran	-11.6063
▁Indian	-11.6066
▁fields	-11.6068
minded	-11.6071
▁convenient	-11.6072
▁currency	-11.6074
▁identical	-11.6074
▁Otherwise	-11.6074
▁Bronze	-11.6077
▁sheet	-11.608
▁smashed	-11.6082
▁Po	-11.609
▁blink	-11.609
making	-11.6095
never	-11.6101
▁pops	-11.6106
▁Lets	-11.6106
33	-11.6107
oc	-11.6109
▁prick	-11.6112
▁YouTube	-11.6113
▁2008	-11.6113
▁Lord	-11.6118
help	-11.6119
▁lands	-11.612
lol	-11.6126
▁county	-11.6127
▁terror	-11.6134
▁paragraph	-11.6135
▁180	-11.6135
▁convert	-11.6141
▁trusting	-11.6145
▁loser	-11.6145
▁consciousness	-11.6151
200	-11.6155
▁slot	-11.6155
tle	-11.6155
▁sadness	-11.6157
▁Buy	-11.6157
▁noises	-11.6157
▁Western	-11.6158
erg	-11.6158
▁thankful	-11.6161
key	-11.6163
▁resent	-11.6163
▁hunting	-11.6165
ture	-11.6167
▁citizen	-11.6174
▁detailed	-11.6179
load	-11.618
Mo	-11.6182
▁scenes	-11.6183
▁central	-11.6186
▁scheme	-11.6187
▁refusing	-11.6187
▁leap	-11.6188
▁fucks	-11.6189
▁Jews	-11.619
▁approximately	-11.6191
▁attract	-11.6194
▁introverted	-11.6195
▁loading	-11.6196
▁broad	-11.6196
▁massage	-11.6197
▁blocking	-11.6199
cut	-11.6201
gh	-11.6203
▁cookies	-11.6204
▁tissue	-11.6209
uring	-11.621
▁prize	-11.6219
▁easiest	-11.6225
▁gentleman	-11.6225
▁referred	-11.6225
▁porch	-11.6226
▁depressing	-11.6226
will	-11.6227
▁golden	-11.6229
▁golf	-11.6236
know	-11.6238
om	-11.6239
▁fucker	-11.6244
▁smarter	-11.6246
▁Start	-11.6251
ong	-11.6254
▁heels	-11.6255
▁al	-11.6258
2)	-11.6258
break	-11.6261
▁bump	-11.6261
▁voted	-11.6262
▁reflect	-11.6263
▁slightest	-11.6264
▁clarity	-11.6265
▁scares	-11.6265
▁Mexico	-11.6265
▁scaling	-11.6266
▁charging	-11.6268
▁survived	-11.6271
▁pushes	-11.6274
▁Overall	-11.6274
ration	-11.6276
▁courses	-11.6276
▁coin	-11.6282
▁ignores	-11.6286
▁dish	-11.6286
gy	-11.6286
ST	-11.6288
▁smoker	-11.629
▁Case	-11.6298
▁Thing	-11.6298
▁liquor	-11.6301
▁tobacco	-11.6301
▁President	-11.6301
▁panicked	-11.6301
▁motorcycle	-11.6302
▁magical	-11.6303
▁City	-11.6308
▁legitimately	-11.6309
▁Always	-11.6315
▁slap	-11.6317
▁insecurity	-11.632
▁attribute	-11.6325
▁Put	-11.6328
nothing	-11.6331
▁directed	-11.6331
almost	-11.6332
▁fuckin	-11.6339
▁contributing	-11.6339
▁shook	-11.634
▁marrying	-11.6343
)?	-11.6345
▁ELO	-11.6345
Did	-11.6357
▁tanky	-11.6358
ble	-11.6363
wife	-11.6364
▁preference	-11.6365
▁nerves	-11.6369
due	-11.6372
▁hints	-11.6375
▁category	-11.6378
▁dmg	-11.6378
▁DNA	-11.6378
▁protest	-11.6379
hard	-11.6382
▁rat	-11.6383
▁understands	-11.6383
▁racing	-11.6384
▁sorta	-11.6389
▁versa	-11.6389
▁heated	-11.639
▁Ga	-11.6395
▁NY	-11.64
▁lifted	-11.6402
▁pole	-11.6409
mate	-11.6415
▁mmr	-11.6417
▁uniform	-11.6418
▁nerdy	-11.6421
▁nicer	-11.6421
▁solved	-11.6423
▁Death	-11.6425
▁evolved	-11.6426
▁Ra	-11.643
list	-11.6434
did	-11.6443
▁speeding	-11.6445
▁slammed	-11.6455
▁rural	-11.6455
▁DON	-11.6458
▁filter	-11.646
▁Half	-11.6461
ang	-11.6466
EN	-11.6471
tra	-11.6479
▁element	-11.648
▁shrooms	-11.6484
▁threesome	-11.6487
ya	-11.6487
▁specs	-11.649
ign	-11.6491
ure	-11.6495
▁skeptical	-11.6498
Ch	-11.6498
▁formula	-11.6499
▁noticeable	-11.6504
ag	-11.651
▁behave	-11.6511
▁AMD	-11.6511
▁witness	-11.6515
18	-11.6516
From	-11.6524
▁rating	-11.6524
▁interpret	-11.6527
▁risks	-11.6529
▁produced	-11.653
▁banks	-11.6532
▁injuries	-11.6533
responsibilities	-11.6534
▁occurs	-11.6538
▁racial	-11.6538
▁corn	-11.6539
▁soap	-11.654
▁tricks	-11.654
▁Sony	-11.654
▁floating	-11.6542
▁delivered	-11.6545
▁GW	-11.6545
▁abandon	-11.655
Look	-11.6552
▁requested	-11.6558
▁Hey	-11.656
related	-11.6569
▁flaming	-11.6572
▁streaming	-11.6572
▁booze	-11.6573
▁summary	-11.6575
▁announced	-11.6583
▁encountered	-11.6589
week	-11.6591
▁figures	-11.6595
ising	-11.6595
AP	-11.6595
▁pillow	-11.6601
iest	-11.6603
▁buffs	-11.6603
home	-11.6603
▁foundation	-11.6605
▁du	-11.6606
▁leaders	-11.6609
▁viewed	-11.6609
▁casting	-11.6609
▁vacuum	-11.6612
▁digging	-11.6614
▁lurker	-11.6615
▁irritated	-11.6616
▁preface	-11.6617
▁pissing	-11.6619
phone	-11.6619
▁moderate	-11.6623
shot	-11.6623
▁assure	-11.6624
two	-11.6632
Stop	-11.6646
▁outgoing	-11.6646
▁stab	-11.6648
ight	-11.6649
▁generations	-11.665
▁clever	-11.6651
ai	-11.6654
power	-11.6657
▁practices	-11.6657
▁Win	-11.6657
▁Middle	-11.6657
▁inability	-11.6665
▁recording	-11.6666
▁powers	-11.6666
▁backup	-11.6668
▁NOW	-11.6668
▁sheets	-11.667
▁closely	-11.6672
▁tearing	-11.6672
tri	-11.6673
any	-11.6675
ments	-11.6679
▁Force	-11.668
▁performing	-11.668
▁browse	-11.6686
▁melee	-11.6686
▁stroke	-11.6687
▁nowadays	-11.6691
▁operating	-11.6691
▁gently	-11.6691
▁hugged	-11.6691
▁meme	-11.6691
nearest	-11.6696
▁Flash	-11.6697
▁closure	-11.6697
▁bits	-11.6698
▁subjects	-11.6699
▁Hope	-11.6701
▁African	-11.6703
▁zombie	-11.6722
family	-11.6723
▁disc	-11.6724
▁cure	-11.6726
ear	-11.6726
gan	-11.6726
▁KNOW	-11.6728
rr	-11.6729
▁friday	-11.6731
▁electricity	-11.6731
▁Soon	-11.6734
▁Bungie	-11.6735
▁WAY	-11.6736
▁Essentially	-11.6736
▁reaches	-11.674
2.	-11.6745
▁ents	-11.6757
front	-11.6757
ID	-11.6758
▁animation	-11.6761
class	-11.6762
Where	-11.6764
▁fond	-11.6769
▁studio	-11.6773
▁Guess	-11.6775
▁Army	-11.6775
try	-11.6776
▁UN	-11.678
17	-11.6782
▁american	-11.6783
▁ordeal	-11.6785
▁stages	-11.6788
hour	-11.6789
▁races	-11.6789
▁chips	-11.679
▁narrow	-11.6797
▁insults	-11.6798
▁disregard	-11.6802
▁erection	-11.6802
▁Top	-11.6803
Actually	-11.6803
▁meth	-11.6804
Every	-11.6805
▁harmful	-11.6808
bu	-11.6808
▁promote	-11.681
▁microwave	-11.6811
▁steel	-11.6811
▁reduction	-11.6811
▁blonde	-11.6813
▁Made	-11.6813
▁cringe	-11.6814
▁Secondly	-11.6822
▁noob	-11.6823
▁gathered	-11.6823
▁nerfed	-11.6825
cy	-11.6826
Ma	-11.6829
say	-11.683
going	-11.6834
▁Dis	-11.6836
relationship	-11.6837
▁dual	-11.6841
▁barrier	-11.6843
▁turret	-11.6843
▁Boy	-11.6845
▁asses	-11.6847
▁essential	-11.685
▁oxygen	-11.6851
▁batteries	-11.6851
▁dentist	-11.6852
▁alien	-11.6852
IC	-11.6853
▁developer	-11.6855
▁thankfully	-11.6867
stone	-11.6867
thing	-11.6877
white	-11.6886
▁creature	-11.6886
▁Thanksgiving	-11.6892
▁agnostic	-11.6892
▁hood	-11.6894
ware	-11.6898
put	-11.6899
ui	-11.6899
▁apps	-11.6901
▁nut	-11.6907
▁strikes	-11.6909
▁ADD	-11.6909
▁brains	-11.6922
With	-11.6925
▁profession	-11.6925
▁fling	-11.6927
▁script	-11.6927
hy	-11.6932
▁exploring	-11.6932
▁glorious	-11.6932
▁shady	-11.6932
▁harassment	-11.6933
▁grey	-11.6933
▁scenarios	-11.6933
▁domestic	-11.6934
▁allergic	-11.6935
▁JUST	-11.6935
▁farther	-11.6936
▁theories	-11.6937
▁pisses	-11.6938
▁assigned	-11.6942
▁gathering	-11.6942
CE	-11.6947
▁grinding	-11.6952
▁arts	-11.6954
▁discount	-11.6959
water	-11.6965
sometimes	-11.6966
▁Mar	-11.6966
▁possession	-11.6967
▁candidate	-11.6967
▁freaks	-11.697
▁unstable	-11.6973
check	-11.6974
▁practicing	-11.6975
▁chatted	-11.6976
▁impressive	-11.6977
▁trivial	-11.6977
24	-11.6978
▁Wii	-11.6981
▁reveal	-11.6986
▁Mother	-11.6991
▁yards	-11.6995
▁washed	-11.6996
▁55	-11.6996
▁inexperienced	-11.6996
▁concentrate	-11.6998
▁UP	-11.7001
▁processor	-11.7003
▁Tim	-11.7004
▁cave	-11.7008
star	-11.701
▁waist	-11.7014
▁cabin	-11.702
nWhen	-11.7023
▁entertaining	-11.7023
nAfter	-11.7025
▁Ch	-11.7026
▁sue	-11.7027
95	-11.7033
▁SS	-11.7034
eat	-11.7036
fun	-11.7037
▁lip	-11.7044
▁Drive	-11.7047
world	-11.7049
▁reform	-11.7049
▁lesser	-11.705
ez	-11.7052
▁smokes	-11.7053
▁cheek	-11.7054
▁versus	-11.7055
▁spouse	-11.7055
▁anime	-11.7055
▁rushing	-11.7058
▁rapidly	-11.7058
▁copies	-11.7058
card	-11.7062
▁;)	-11.7078
▁heck	-11.7083
▁Story	-11.7084
▁receipt	-11.7091
▁Dead	-11.7093
▁Thinking	-11.7094
▁poverty	-11.7096
▁profusely	-11.7096
▁slapped	-11.7097
▁steak	-11.7099
▁Dragon	-11.7103
▁accomplished	-11.7107
ick	-11.7108
Our	-11.7108
▁perceived	-11.7113
▁Check	-11.7118
▁smurf	-11.7124
▁contest	-11.7126
▁copyright	-11.713
▁trolling	-11.713
▁masters	-11.7131
fu	-11.7131
que	-11.7133
▁wages	-11.7133
23	-11.7136
▁sole	-11.7136
▁douchebag	-11.7137
▁administration	-11.7138
▁biology	-11.7138
▁911	-11.7139
▁travelling	-11.714
▁satisfaction	-11.7141
▁heroin	-11.7142
▁solutions	-11.7147
xac	-11.7148
▁5-6	-11.7149
▁deals	-11.7153
▁cr	-11.7161
▁Guys	-11.7162
▁associate	-11.7162
▁$8	-11.7166
▁defending	-11.7172
▁bucket	-11.7176
▁incentive	-11.7176
▁gen	-11.7176
???	-11.7178
▁historical	-11.7179
▁concentration	-11.718
▁tunnel	-11.718
▁colour	-11.7181
▁encouraging	-11.7181
▁advertising	-11.7182
▁exposure	-11.7182
▁rack	-11.7187
really	-11.7187
▁Much	-11.7187
▁nations	-11.7188
▁era	-11.7189
▁dull	-11.719
▁blog	-11.7193
▁rocky	-11.7197
▁ranks	-11.7197
▁pockets	-11.7201
▁crawl	-11.7205
▁artists	-11.7205
▁crashing	-11.7209
▁bo	-11.721
wing	-11.7211
▁negatively	-11.7213
▁components	-11.7213
▁pressured	-11.7215
▁accuse	-11.7215
▁MA	-11.7217
ker	-11.7219
▁freeze	-11.722
▁recorded	-11.7222
▁uncommon	-11.7222
▁preferred	-11.7223
▁Total	-11.7224
▁pets	-11.7224
▁chemicals	-11.7226
dia	-11.7227
▁da	-11.723
▁belly	-11.7233
▁relieved	-11.7234
▁demands	-11.7234
▁cheer	-11.7237
▁circles	-11.7239
dad	-11.7241
Bee	-11.7245
▁poison	-11.7245
▁upside	-11.7246
misunderstanding	-11.7246
last	-11.7247
▁episodes	-11.7247
test	-11.725
▁hike	-11.7254
advice	-11.7258
ix	-11.7259
14	-11.7259
▁deficit	-11.7263
▁enormous	-11.7263
▁twitch	-11.7263
▁matchmaking	-11.7264
▁Uni	-11.7264
▁excess	-11.7265
▁addressed	-11.7267
▁bacteria	-11.7268
▁Harry	-11.7269
▁Wow	-11.7269
lan	-11.7273
▁elected	-11.7273
▁rental	-11.7274
▁2013	-11.7276
▁schedules	-11.728
▁bold	-11.7282
▁$4	-11.7285
▁documents	-11.7287
Pa	-11.7288
▁expressing	-11.7301
▁obnoxious	-11.7301
▁Washington	-11.7306
▁MUCH	-11.7306
ties	-11.7308
▁concepts	-11.731
▁Thoughts	-11.7311
▁instructions	-11.7315
▁fart	-11.7316
▁Th	-11.7317
nWhat	-11.7322
▁(5	-11.7323
pen	-11.7326
ney	-11.7327
▁meaningless	-11.7328
aking	-11.7329
▁decrease	-11.733
▁Ne	-11.733
▁someday	-11.7332
▁creeps	-11.7333
▁tense	-11.7337
▁bc	-11.7343
▁unexpected	-11.7344
▁lasting	-11.7348
▁hurry	-11.7348
▁multiplayer	-11.7348
▁drastically	-11.7348
▁urine	-11.7349
▁infrastructure	-11.7349
▁Example	-11.7353
▁invites	-11.7353
Bo	-11.7355
▁graphic	-11.7361
▁OUT	-11.7361
aka	-11.7361
▁streams	-11.7367
▁shoved	-11.7368
sis	-11.7368
▁spiral	-11.7369
▁unlock	-11.7371
par	-11.7381
▁partly	-11.7382
wa	-11.7383
gr	-11.7389
▁vehicles	-11.7389
▁counts	-11.739
war	-11.739
▁nursing	-11.7391
▁niece	-11.7391
▁supplies	-11.7391
bed	-11.7391
▁rebound	-11.7391
▁chilling	-11.7392
▁romantically	-11.7392
▁sore	-11.7392
act	-11.7393
▁subreddits	-11.7395
▁Night	-11.7399
▁:)","	-11.7399
▁kisses	-11.74
▁EVER	-11.7404
uck	-11.7414
▁shell	-11.7417
▁resist	-11.7421
▁Wait	-11.7421
1)	-11.7424
See	-11.7424
▁introvert	-11.7424
▁GA	-11.7426
turn	-11.7427
▁Wal	-11.7433
▁disability	-11.7434
▁dumbass	-11.7435
▁technique	-11.7435
▁guts	-11.7438
cause	-11.7439
▁taxi	-11.7441
Thanks	-11.7444
▁fiancee	-11.7445
▁weaker	-11.7458
▁scientists	-11.7462
Un	-11.7464
ev	-11.7467
fully	-11.7468
▁corrupt	-11.747
word	-11.7472
kill	-11.7475
▁loyal	-11.7476
▁Halloween	-11.7476
▁nephew	-11.7476
▁vodka	-11.7476
▁foreplay	-11.7476
▁dps	-11.7477
▁resentment	-11.7477
▁freezing	-11.7477
▁standpoint	-11.7478
▁analogy	-11.7478
▁personalities	-11.7479
▁swap	-11.7482
▁vibe	-11.7483
▁hammer	-11.7483
▁qualified	-11.7485
▁objectives	-11.7488
▁stumbled	-11.7491
tes	-11.7491
▁Women	-11.7492
▁processes	-11.7493
py	-11.7493
▁meantime	-11.7496
space	-11.7496
▁Intel	-11.7496
▁temp	-11.7496
▁buzz	-11.7498
▁pity	-11.7498
▁Read	-11.7503
▁functions	-11.7505
ral	-11.7508
▁flu	-11.7509
Background	-11.7515
Wow	-11.7516
▁chip	-11.7519
▁engaging	-11.7519
▁techniques	-11.752
▁morality	-11.7521
▁cord	-11.7523
▁ordinary	-11.7523
▁Republican	-11.7525
▁dominant	-11.7526
300	-11.7527
▁guests	-11.7527
▁Law	-11.753
NA	-11.7532
▁novel	-11.7532
▁commonly	-11.7535
▁intake	-11.7536
▁watches	-11.7544
""?	-11.7544
▁ent	-11.7544
▁viewing	-11.7547
▁earning	-11.7549
▁roam	-11.7551
ks	-11.7555
▁Home	-11.7555
▁id	-11.756
▁speaks	-11.756
▁stunned	-11.7563
▁basics	-11.7565
▁blatantly	-11.7565
mind	-11.7566
▁pale	-11.7567
▁flawed	-11.7569
▁finance	-11.7569
▁awkwardness	-11.7573
type	-11.7575
onic	-11.7576
lets	-11.7577
▁kicks	-11.7581
jo	-11.7584
▁approve	-11.759
▁eats	-11.7597
ki	-11.7598
▁donate	-11.7599
▁describing	-11.7606
▁intersection	-11.7606
bb	-11.7608
▁GPA	-11.7609
▁virtually	-11.7609
cal	-11.761
/10	-11.7618
▁armed	-11.7624
▁spiritual	-11.7625
▁titles	-11.7628
▁slim	-11.7632
▁wiped	-11.7635
▁buttons	-11.764
under	-11.7642
▁viewers	-11.7642
64	-11.7645
Before	-11.7646
▁interviews	-11.7648
▁avail	-11.7649
▁progressed	-11.7649
▁popping	-11.7651
An	-11.7651
▁snapchat	-11.7653
▁chores	-11.7654
▁youngest	-11.7656
▁publicly	-11.7657
▁predict	-11.766
)."	-11.7664
▁harmless	-11.7665
oon	-11.7674
▁cracked	-11.7674
met	-11.7675
▁ramp	-11.7676
▁safer	-11.7677
▁cultures	-11.7681
pers	-11.7682
▁vary	-11.7682
3)	-11.7684
Also	-11.7687
point	-11.769
▁eve	-11.769
▁neat	-11.7691
▁conference	-11.7694
▁qualities	-11.7694
▁respective	-11.7698
▁preventing	-11.77
▁imo	-11.7701
▁Support	-11.7705
table	-11.7708
▁Games	-11.7713
▁killer	-11.7719
▁mac	-11.7722
▁roller	-11.7726
▁Started	-11.7729
▁sentences	-11.773
cast	-11.7733
order	-11.7737
▁upvote	-11.7737
▁gentle	-11.7737
▁preparing	-11.7738
▁opposing	-11.7738
▁Talk	-11.7738
▁hiring	-11.7738
▁undergrad	-11.7739
▁guidance	-11.774
Best	-11.7741
▁wireless	-11.7744
▁Mostly	-11.7744
▁immune	-11.7744
form	-11.7747
▁fewer	-11.7749
▁deed	-11.775
▁Update	-11.7751
▁factory	-11.7756
▁regen	-11.7759
▁sheer	-11.776
▁doc	-11.7762
▁Ka	-11.7762
▁orbit	-11.7764
▁collapse	-11.7768
\\	-11.7768
▁psycho	-11.7772
▁sec	-11.7773
ew	-11.7774
ek	-11.7776
Dude	-11.7779
▁subjective	-11.778
Today	-11.7781
▁worship	-11.7782
▁unemployment	-11.7782
▁spinning	-11.7782
▁WANT	-11.7782
▁shotgun	-11.7782
▁curb	-11.7785
▁mechanism	-11.7786
air	-11.7787
▁UPDATE	-11.7791
▁reserved	-11.7791
▁typed	-11.7793
▁asian	-11.7801
▁Add	-11.7804
▁pour	-11.7806
▁manipulate	-11.781
▁hassle	-11.7812
▁glance	-11.7814
▁Lastly	-11.7815
▁Wall	-11.782
style	-11.7822
uc	-11.7824
▁blows	-11.7826
▁orientation	-11.7826
▁universal	-11.7826
▁embarrassment	-11.7827
▁stitches	-11.7827
▁clinic	-11.7829
▁ankle	-11.7831
▁IV	-11.7836
▁Cho	-11.7837
▁upsetting	-11.7841
▁convo	-11.7853
▁perceive	-11.7856
▁spec	-11.7857
▁cough	-11.7857
21	-11.7859
▁protected	-11.786
▁Holy	-11.786
▁Hu	-11.7862
▁discipline	-11.7863
▁sucking	-11.7863
▁Iron	-11.7866
▁compliments	-11.7866
Which	-11.7868
▁arrogant	-11.7871
ters	-11.7871
▁damaging	-11.7871
▁drew	-11.7871
82\	-11.7872
▁relation	-11.7872
▁inherently	-11.7873
▁chronic	-11.7875
▁neglected	-11.7875
AN	-11.7876
▁shirts	-11.7876
▁nude	-11.7877
▁warrior	-11.7881
▁plates	-11.7881
▁bent	-11.7883
guy	-11.7893
▁sprint	-11.7895
▁realizes	-11.7902
▁commute	-11.7904
▁shitting	-11.7904
▁emailed	-11.7905
▁Sp	-11.7907
▁fishing	-11.7915
▁shout	-11.7915
ending	-11.7916
▁slowed	-11.7916
▁investigation	-11.7916
▁speakers	-11.7919
▁aged	-11.792
▁Season	-11.7924
▁cables	-11.7924
▁restaurants	-11.7928
▁shave	-11.793
-20	-11.7931
▁$300	-11.7935
MA	-11.7937
▁clip	-11.7937
▁downloaded	-11.7938
rat	-11.794
ered	-11.7941
▁climbed	-11.7942
▁painting	-11.7955
▁thirty	-11.7961
▁utilities	-11.7961
▁temporarily	-11.7961
▁psych	-11.7963
▁ur	-11.7965
▁Literally	-11.7965
ony	-11.7966
▁conspiracy	-11.7966
▁essay	-11.7967
▁gum	-11.7967
▁panel	-11.7968
▁atleast	-11.797
▁sufficient	-11.7973
▁wherever	-11.7978
▁prime	-11.7982
▁Seem	-11.7985
▁Fucking	-11.7986
▁demanded	-11.7987
▁tires	-11.7988
▁rewarding	-11.7989
▁bleed	-11.7994
bl	-11.7996
▁FA	-11.7999
▁Found	-11.8002
coming	-11.8003
▁owed	-11.8003
▁abusing	-11.8006
▁elderly	-11.8008
▁catholic	-11.8009
▁TIME	-11.8011
▁lube	-11.8012
▁warned	-11.8013
TA	-11.8018
▁rode	-11.8018
American	-11.8018
▁invisible	-11.8025
▁medications	-11.8029
▁Dan	-11.8032
▁chased	-11.8035
▁fo	-11.8038
▁reads	-11.8041
);	-11.8049
▁mechanical	-11.805
▁Republicans	-11.8051
▁flesh	-11.8051
▁ceremony	-11.8052
▁qualify	-11.8052
▁separation	-11.8052
▁denial	-11.8052
ches	-11.8054
▁organizations	-11.8055
▁progression	-11.8056
▁Pokemon	-11.8056
▁George	-11.806
▁Say	-11.806
▁headache	-11.8061
▁poo	-11.8062
ering	-11.8064
▁ultra	-11.8068
▁employed	-11.807
didn	-11.8071
Mom	-11.8073
▁profits	-11.8078
▁scores	-11.8086
▁screwing	-11.8089
?"".	-11.809
▁ps	-11.8093
PM	-11.8095
Two	-11.8096
Never	-11.8096
▁divide	-11.8097
▁purse	-11.8099
▁tracks	-11.81
nAlso	-11.81
▁spreading	-11.8101
▁Hitler	-11.8101
▁dash	-11.8103
▁jar	-11.8103
▁buys	-11.8105
▁2009	-11.8105
▁scholarship	-11.8106
▁Live	-11.8112
▁assist	-11.8114
▁relatives	-11.8116
▁HER	-11.8123
▁disadvantage	-11.8127
▁confuse	-11.8127
▁MR	-11.8129
body	-11.8132
▁pause	-11.8136
▁moron	-11.8136
ological	-11.8139
▁upvotes	-11.8139
Everyone	-11.8142
▁trauma	-11.8143
▁whip	-11.8143
▁strategies	-11.8143
▁Court	-11.8143
▁NEED	-11.8143
▁unattractive	-11.8143
▁Show	-11.8145
▁Max	-11.8146
▁locations	-11.8149
▁Diamond	-11.815
Does	-11.815
▁mic	-11.8151
▁buildings	-11.8152
▁2015	-11.8155
▁DVD	-11.8156
▁genes	-11.8163
▁punching	-11.817
▁restart	-11.817
▁denying	-11.8171
▁impress	-11.8175
400	-11.8175
▁satisfy	-11.8176
▁indicate	-11.8183
▁warrant	-11.8185
▁hello	-11.8186
▁judgment	-11.8188
▁climate	-11.8189
▁turkey	-11.8189
▁elbow	-11.8189
▁apologies	-11.8189
▁oven	-11.819
▁coping	-11.8191
▁queen	-11.8192
▁calmed	-11.8194
▁Adam	-11.8197
▁stored	-11.8212
▁cd	-11.8213
AS	-11.8219
▁alter	-11.822
▁torture	-11.8223
▁languages	-11.8233
before	-11.8234
▁bust	-11.8235
▁substitute	-11.8236
▁dialogue	-11.8236
▁lump	-11.8236
▁confrontation	-11.8237
▁guides	-11.8238
▁sarcastic	-11.8238
▁Green	-11.8241
▁complains	-11.8243
26	-11.8244
og	-11.8246
▁snack	-11.8246
▁stupidly	-11.8247
then	-11.8253
28	-11.8256
▁banging	-11.826
▁investing	-11.8262
▁burnt	-11.8262
▁amazingly	-11.8263
▁teamfights	-11.8265
▁endless	-11.8268
▁repeating	-11.8271
▁lover	-11.8272
▁Trying	-11.828
▁parallel	-11.8282
▁ultimatum	-11.8282
▁panties	-11.8282
▁WHY	-11.8287
▁tradition	-11.8288
▁unaware	-11.8291
▁2011	-11.8292
▁offend	-11.8294
▁tune	-11.8295
▁fb	-11.8296
Its	-11.8296
▁imagined	-11.8296
▁36	-11.8296
pi	-11.8298
▁bitches	-11.83
part	-11.8302
ics	-11.8303
▁selected	-11.8304
▁bands	-11.8305
UR	-11.8307
Being	-11.831
▁Base	-11.8311
▁clearing	-11.8311
▁stat	-11.8312
PC	-11.8313
▁BB	-11.8314
▁Park	-11.8322
using	-11.8323
▁Congress	-11.8325
▁whine	-11.8325
▁operate	-11.8327
▁waitress	-11.8327
▁helmet	-11.8329
▁Rather	-11.8329
▁laser	-11.8329
▁DDR	-11.8329
▁Tyrion	-11.8332
bag	-11.8332
▁automatic	-11.8334
Edit	-11.8334
31	-11.8335
cho	-11.8337
▁worlds	-11.8339
▁bracket	-11.834
▁pig	-11.8343
▁weighed	-11.8343
▁stereotype	-11.8344
▁flirted	-11.8349
▁performed	-11.8354
arch	-11.8358
▁raids	-11.8361
nce	-11.8364
big	-11.8364
through	-11.8365
▁Chris	-11.8366
ened	-11.8366
▁pun	-11.837
fall	-11.8371
▁realm	-11.8372
9.99	-11.8375
▁inevitably	-11.8376
ib	-11.8376
▁Often	-11.8377
▁athletic	-11.8377
▁committing	-11.8378
▁welfare	-11.8378
▁shares	-11.8379
▁crossing	-11.8379
▁birds	-11.838
▁lifts	-11.838
▁Sadly	-11.8381
▁tactics	-11.8381
▁horn	-11.8387
▁Karma	-11.8389
▁mob	-11.8393
▁TIFU	-11.8393
▁guessed	-11.8402
▁afterward	-11.8404
▁speeds	-11.8408
97	-11.841
"").	-11.8411
▁yr	-11.8418
▁downvotes	-11.8422
▁village	-11.8423
▁psychology	-11.8423
000	-11.8424
▁Michael	-11.8426
▁distribution	-11.8427
ml	-11.8428
▁sexist	-11.843
▁requests	-11.843
▁pouring	-11.8436
▁exploded	-11.8439
▁clueless	-11.8442
▁forgetting	-11.8447
▁33	-11.846
▁ranking	-11.8464
▁shelf	-11.8464
▁brakes	-11.8466
▁surprising	-11.8466
▁camps	-11.8468
▁Greek	-11.847
▁squad	-11.847
▁Starcraft	-11.847
▁ASAP	-11.847
▁zerg	-11.847
▁struggles	-11.8471
LO	-11.8476
▁functional	-11.8477
▁workplace	-11.8479
▁tale	-11.8484
▁escalated	-11.8484
▁filed	-11.8491
▁desires	-11.8491
▁louder	-11.8492
Am	-11.8493
▁freely	-11.8499
▁genre	-11.8499
▁que	-11.8499
▁NC	-11.8504
▁ol	-11.8506
▁65	-11.8507
▁encounters	-11.8516
▁anonymous	-11.8517
▁empathy	-11.8518
▁hindsight	-11.8518
▁stigma	-11.8518
▁DotA	-11.8518
▁10-15	-11.852
▁exceptions	-11.8523
rus	-11.8527
▁401	-11.8528
▁unlocked	-11.8528
▁MMO	-11.8535
▁Alex	-11.854
▁expects	-11.8542
Ro	-11.8547
▁(4	-11.8548
ik	-11.8553
▁provider	-11.8554
▁desired	-11.8556
▁disconnect	-11.8557
gb	-11.8559
▁connecting	-11.8559
▁journal	-11.856
▁Muslims	-11.8561
▁flags	-11.8561
▁pressing	-11.8564
▁testosterone	-11.8566
▁disappointment	-11.8566
▁transportation	-11.8566
▁Bush	-11.8568
▁burns	-11.8568
▁inclined	-11.8569
▁shattered	-11.8569
▁amazed	-11.857
▁Nintendo	-11.857
▁binge	-11.8573
▁Bi	-11.8574
▁spoiled	-11.8576
▁Sin	-11.8576
▁adrenaline	-11.8584
▁approved	-11.859
▁vapor	-11.8598
▁stumble	-11.8598
▁quests	-11.86
▁risky	-11.86
▁conclusions	-11.8604
▁bail	-11.8607
▁fifteen	-11.8614
▁grief	-11.8614
▁hockey	-11.8614
▁whining	-11.8614
▁sp	-11.8614
▁alternate	-11.8614
▁skipped	-11.8614
▁manual	-11.8614
▁cries	-11.8615
▁downhill	-11.8616
▁5-10	-11.8617
▁Knowing	-11.8623
▁poured	-11.8624
1.	-11.8625
▁GET	-11.8626
rry	-11.8626
▁mothers	-11.8626
▁recovering	-11.8635
▁scientist	-11.8635
▁conflicted	-11.8638
▁baron	-11.8638
▁burger	-11.864
▁kicker	-11.864
▁nope	-11.8645
▁$30	-11.8646
went	-11.8647
▁mute	-11.8647
rick	-11.8648
▁beard	-11.8653
▁maintained	-11.8655
▁reluctant	-11.8658
▁channels	-11.8659
▁convention	-11.866
▁EVERYTHING	-11.8662
▁explode	-11.8662
▁protecting	-11.8664
▁exercising	-11.8665
-3	-11.8673
▁scales	-11.8674
▁Stay	-11.8677
▁processing	-11.8679
▁dungeons	-11.868
nice	-11.8685
▁deer	-11.8687
▁suspected	-11.8688
ify	-11.8689
▁Link	-11.8692
▁flush	-11.8695
▁Given	-11.8703
want	-11.8709
▁destruction	-11.8711
▁narrative	-11.8711
▁coincidence	-11.8711
▁unwanted	-11.8711
▁PhD	-11.8711
▁estate	-11.8712
▁chicks	-11.8713
hood	-11.8716
▁patches	-11.8717
▁DE	-11.8718
▁Several	-11.8719
▁regrets	-11.872
ying	-11.8721
▁assets	-11.8726
OS	-11.8729
mine	-11.8732
zo	-11.8734
▁disgust	-11.8735
master	-11.8738
keep	-11.8741
▁transport	-11.875
▁concerning	-11.8756
▁advances	-11.8758
▁comprehend	-11.8759
▁initiating	-11.8759
▁Skyrim	-11.8762
▁mold	-11.8763
▁scout	-11.877
▁$7	-11.8773
▁restrictions	-11.8773
▁wax	-11.8779
▁Core	-11.878
uch	-11.8788
god	-11.8789
▁versions	-11.879
▁drawer	-11.8791
▁meetings	-11.8794
.)","	-11.88
▁proportion	-11.8801
▁LAN	-11.8803
▁disorders	-11.8805
▁rune	-11.8806
▁excessive	-11.8807
▁fantasies	-11.8809
▁implies	-11.8809
▁cocaine	-11.8809
human	-11.8811
hu	-11.8815
text	-11.8816
▁tossed	-11.8819
▁constructive	-11.882
▁instinct	-11.882
▁Party	-11.8823
step	-11.8826
▁movements	-11.8836
▁Year	-11.8838
Read	-11.8847
▁aswell	-11.8853
▁proved	-11.8853
stick	-11.8854
▁competing	-11.8858
▁purchasing	-11.8858
▁contrast	-11.8858
▁Mexican	-11.8861
▁thief	-11.8861
Pro	-11.8862
▁playstyle	-11.8863
▁mildly	-11.8865
ON	-11.8874
▁Je	-11.8876
▁rotation	-11.8877
▁lore	-11.8881
▁Afterwards	-11.8882
▁murdered	-11.8883
▁reconnect	-11.8886
▁Cut	-11.8888
int	-11.8894
▁TP	-11.8894
▁fifth	-11.8907
▁sympathy	-11.8907
▁consumption	-11.8907
▁stability	-11.8907
▁Newegg	-11.8907
▁hugging	-11.8908
▁yea	-11.8908
▁verify	-11.8908
Take	-11.8909
dating	-11.8911
▁admitting	-11.8911
ric	-11.8911
▁Riven	-11.8912
▁mainstream	-11.8912
▁sensitivity	-11.8912
▁traveled	-11.8913
▁organic	-11.8915
▁carbon	-11.8921
▁Redditors	-11.8921
▁grain	-11.8927
▁slam	-11.8928
rin	-11.8928
▁requirement	-11.893
ueen	-11.893
▁operation	-11.8932
sha	-11.8932
▁tracking	-11.8935
▁triple	-11.8937
▁Mu	-11.8939
▁rescue	-11.8941
▁cruise	-11.8943
▁sigh	-11.8946
▁$15	-11.8947
feel	-11.8951
▁functioning	-11.8953
▁applications	-11.8956
fe	-11.8957
▁caffeine	-11.8957
▁digress	-11.8957
▁bartender	-11.8957
▁motherfucker	-11.8957
▁cliff	-11.8957
▁Third	-11.8957
▁CH	-11.8958
▁tripped	-11.896
▁managing	-11.896
come	-11.8961
▁relations	-11.8962
▁bots	-11.8966
▁$40	-11.8967
▁cameras	-11.8968
▁electronics	-11.897
▁tri	-11.897
▁pleased	-11.8978
▁scumbag	-11.898
▁rented	-11.8984
▁conduct	-11.8986
▁newly	-11.8993
▁monitors	-11.8995
chi	-11.8998
▁RE	-11.8999
▁payed	-11.9001
▁Memory	-11.9007
▁commission	-11.9007
▁dilemma	-11.9007
▁french	-11.9007
▁Satan	-11.9007
link	-11.9008
▁niche	-11.9008
▁facial	-11.9008
▁approval	-11.9009
▁Ad	-11.9012
▁protective	-11.9017
▁scope	-11.9019
▁inspired	-11.9021
▁ordering	-11.9022
hot	-11.9023
▁sting	-11.9023
▁faithful	-11.9023
▁Kind	-11.9026
▁balloon	-11.9029
▁fps	-11.9029
▁stealth	-11.9034
▁boom	-11.9035
▁snake	-11.9037
27	-11.904
such	-11.9041
▁chin	-11.9042
row	-11.9043
▁distinct	-11.9046
lf	-11.9046
▁placement	-11.9055
▁mud	-11.9056
▁survey	-11.9057
▁democracy	-11.9057
▁jury	-11.9058
conscious	-11.9058
Riot	-11.906
▁squats	-11.9061
▁vanilla	-11.9061
▁$6	-11.9062
Need	-11.9065
▁flavors	-11.9065
▁FF	-11.9065
▁smiles	-11.9065
▁towels	-11.9066
▁tricky	-11.9069
▁retard	-11.9071
▁twisted	-11.9071
cl	-11.9074
▁Fox	-11.9074
▁harassing	-11.9075
](","	-11.9078
▁registered	-11.9078
▁TF	-11.908
▁brave	-11.9081
▁venue	-11.9082
▁teammate	-11.9084
iz	-11.9087
has	-11.909
▁hangs	-11.909
▁mutually	-11.9094
ENT	-11.9096
▁spoon	-11.9096
care	-11.9097
▁rework	-11.91
Thank	-11.9102
uick	-11.9105
▁:/	-11.9107
hole	-11.9107
▁invasion	-11.9108
▁skull	-11.9108
▁amendment	-11.9108
▁southern	-11.9108
▁popcorn	-11.9108
▁fraud	-11.9108
▁hostile	-11.9108
▁barrel	-11.9109
▁upgraded	-11.911
▁equality	-11.9111
▁Vayne	-11.9111
▁challenges	-11.9113
▁grant	-11.9113
▁generate	-11.9114
▁sack	-11.9115
▁Worst	-11.9116
▁enjoyment	-11.9118
▁dorms	-11.912
▁spite	-11.9123
▁recovered	-11.9124
▁layer	-11.9125
▁writer	-11.9125
▁800	-11.9126
▁coins	-11.9128
▁adapter	-11.9129
▁brick	-11.9132
▁resource	-11.9133
▁editing	-11.9137
ay	-11.9139
▁progressive	-11.914
▁feminist	-11.9141
sta	-11.9141
▁contacts	-11.9145
gs	-11.9145
PA	-11.9146
▁curse	-11.9149
▁stash	-11.9151
▁grounds	-11.9152
▁eager	-11.9154
▁ranged	-11.9155
▁trunk	-11.9159
▁bisexual	-11.9159
▁MORE	-11.9159
▁Jake	-11.9162
87	-11.9162
▁sorted	-11.9163
▁Sa	-11.9165
▁commenting	-11.9165
▁reacting	-11.9166
▁threaten	-11.9168
▁cliche	-11.917
▁domain	-11.9172
▁backing	-11.9173
▁printed	-11.9174
▁fate	-11.9179
▁Plan	-11.9188
▁Told	-11.9191
▁missions	-11.9191
sub	-11.9192
ob	-11.9192
▁timeline	-11.9195
pl	-11.9201
▁achieved	-11.9206
▁steep	-11.921
▁Boston	-11.921
▁stabbed	-11.921
▁haul	-11.921
▁rehab	-11.921
▁clicking	-11.9211
▁immensely	-11.9213
better	-11.9213
▁aggro	-11.9214
▁sketchy	-11.9214
▁ap	-11.9215
▁renting	-11.9215
port	-11.9218
▁leveling	-11.9218
Taking	-11.9219
▁disconnected	-11.9219
▁contains	-11.922
▁drunkenly	-11.922
▁brushed	-11.9225
▁urges	-11.9226
▁dozens	-11.9229
sion	-11.9231
▁interpretation	-11.9235
action	-11.9239
▁th	-11.9244
TB	-11.9245
▁capture	-11.9245
▁havent	-11.9247
55	-11.9248
]("	-11.925
▁imagination	-11.9261
▁mediocre	-11.9261
▁proposal	-11.9261
▁chalk	-11.9261
▁slavery	-11.9261
▁terminal	-11.9262
art	-11.9263
▁emphasis	-11.9265
▁powder	-11.9265
▁disturbing	-11.9266
▁insist	-11.927
ians	-11.9271
▁condo	-11.9272
▁implemented	-11.9275
85	-11.9275
▁GO	-11.9285
800	-11.9286
▁swallow	-11.9291
▁quicker	-11.9293
▁morals	-11.9293
place	-11.9297
32	-11.93
▁ruins	-11.9302
▁mattress	-11.9311
▁apt	-11.9312
▁twitter	-11.9312
▁Motherboard	-11.9313
▁Normal	-11.9313
▁properties	-11.9313
ition	-11.9314
▁regretted	-11.9315
▁darkness	-11.9319
▁arranged	-11.9325
▁Sha	-11.9325
ette	-11.9331
CH	-11.9333
▁caps	-11.9333
VE	-11.9333
▁collecting	-11.9336
▁waiter	-11.9342
shirt	-11.9343
▁bla	-11.9348
▁grin	-11.9348
getting	-11.935
▁Gu	-11.9355
guard	-11.9358
▁alert	-11.9361
▁NSA	-11.9361
▁fetish	-11.9363
ill	-11.9363
ced	-11.9364
▁destination	-11.9364
cer	-11.9364
▁retreat	-11.9365
▁borderline	-11.9365
▁adoption	-11.9365
▁shine	-11.9366
▁stereotypical	-11.9367
▁reflection	-11.9367
without	-11.9371
▁objectively	-11.9373
▁24/7	-11.9374
AT	-11.9374
▁ph	-11.9377
▁Pay	-11.9379
▁18,	-11.9379
▁Social	-11.938
▁zoo	-11.9382
▁rides	-11.9385
▁dragons	-11.9386
▁vi	-11.9388
Since	-11.9389
▁modem	-11.9389
▁bounce	-11.9389
▁shops	-11.9389
▁controls	-11.9392
▁extension	-11.9394
ump	-11.9398
pet	-11.9398
working	-11.94
▁kg	-11.9404
▁adopt	-11.9414
▁cow	-11.9415
▁(6	-11.9416
▁fraction	-11.9416
▁agenda	-11.9416
!!""	-11.9416
▁boxers	-11.942
▁daughters	-11.942
▁Walmart	-11.9421
obviously	-11.9422
▁wishing	-11.9425
▁National	-11.9425
▁Tonight	-11.9428
pin	-11.9429
sure	-11.9429
▁ne	-11.9437
▁newspaper	-11.9444
84	-11.9444
▁flood	-11.9447
▁mountains	-11.945
▁swings	-11.9453
▁1500	-11.9454
▁El	-11.9456
▁dreaming	-11.9459
▁(20	-11.946
▁brutal	-11.9464
▁remembering	-11.9464
▁obligated	-11.9469
▁dispute	-11.9469
▁firing	-11.9469
▁attachment	-11.947
▁prone	-11.9471
▁Romney	-11.9473
▁nerfs	-11.9473
▁Batman	-11.9473
ular	-11.9474
▁dearly	-11.9475
taking	-11.9477
▁shouted	-11.9479
▁collected	-11.9486
close	-11.9488
▁assaulted	-11.9489
▁Real	-11.949
▁slack	-11.9495
▁mu	-11.9496
▁macro	-11.9498
▁grave	-11.9499
▁admittedly	-11.9499
▁TA	-11.95
▁wakes	-11.95
▁criminals	-11.9501
▁assignments	-11.9505
▁slave	-11.9505
▁secrets	-11.951
pp	-11.9512
▁GM	-11.9517
▁discrimination	-11.9521
▁nicotine	-11.9521
▁subscription	-11.9521
▁pencil	-11.9521
▁accusing	-11.9521
▁worn	-11.9522
▁composition	-11.9522
▁Fortunately	-11.9524
lie	-11.9524
▁locks	-11.9525
▁workouts	-11.9525
▁IE	-11.9527
▁Age	-11.9527
▁ammo	-11.9527
▁hype	-11.9528
▁firmly	-11.953
iding	-11.9532
era	-11.9534
▁actors	-11.954
Dad	-11.9542
die	-11.9544
▁Wi	-11.9549
hit	-11.9549
▁obligation	-11.9551
itch	-11.9555
▁2010	-11.9557
▁meters	-11.9558
▁establish	-11.956
▁1080	-11.9565
▁arrives	-11.9567
▁hose	-11.957
▁shaped	-11.9571
ME	-11.9573
▁aforementioned	-11.9574
▁intervention	-11.9574
▁bacon	-11.9574
▁shipped	-11.9575
▁teasing	-11.9575
▁Robert	-11.9578
placing	-11.9579
▁Shadow	-11.958
iff	-11.9581
▁optimal	-11.9582
▁packing	-11.9585
app	-11.9586
ls	-11.9586
bone	-11.9586
▁Ja	-11.9587
▁morally	-11.9588
▁Tri	-11.9591
---	-11.9591
▁ounce	-11.9592
▁ju	-11.9594
▁yada	-11.9598
▁tasted	-11.96
▁fooling	-11.9603
▁distract	-11.9605
▁Down	-11.9606
600	-11.9607
▁cookie	-11.9608
▁carbs	-11.9609
verse	-11.9611
▁squeeze	-11.9614
▁quotes	-11.9614
▁lung	-11.9614
SE	-11.9615
Ba	-11.9617
▁hack	-11.9618
▁wears	-11.9618
▁nicest	-11.9619
▁possibilities	-11.9627
▁territory	-11.9627
▁sobbing	-11.9628
▁rubber	-11.9628
▁precious	-11.9628
▁witch	-11.963
▁Twitter	-11.963
▁Annie	-11.9633
Found	-11.9634
▁Hunter	-11.9636
early	-11.9637
▁twenties	-11.9639
ele	-11.9639
▁Generally	-11.964
▁Bro	-11.9641
▁delayed	-11.9641
▁smallest	-11.9644
mom	-11.9644
▁Sh	-11.9648
▁serves	-11.9648
▁sheep	-11.9651
▁appealing	-11.9651
▁Others	-11.9655
▁gene	-11.9656
▁Pick	-11.9664
▁references	-11.9666
▁consumers	-11.9666
pol	-11.9667
▁musical	-11.967
▁desert	-11.9672
▁cheater	-11.9674
doesn	-11.9674
▁64	-11.9676
1:	-11.9677
party	-11.968
▁revolution	-11.9681
▁helicopter	-11.9681
▁knives	-11.9681
▁yield	-11.9681
▁diarrhea	-11.9681
▁9/11	-11.9681
▁whim	-11.9683
▁subway	-11.9684
▁efficiency	-11.9686
would	-11.9687
▁FL	-11.9687
].	-11.9689
▁sliding	-11.9689
▁accordingly	-11.9695
Con	-11.9696
▁Fun	-11.97
▁cam	-11.9701
▁Girlfriend	-11.9702
▁Per	-11.9702
qua	-11.9703
▁hugs	-11.9711
▁blowjob	-11.9714
AD	-11.9714
▁marked	-11.9714
▁smash	-11.9722
▁similarly	-11.973
▁flexible	-11.9735
▁infant	-11.9735
▁vital	-11.9736
▁representation	-11.9737
▁discomfort	-11.9737
▁Linux	-11.9737
▁weakness	-11.9738
▁sells	-11.9738
▁THEY	-11.9739
▁Irish	-11.9741
▁candidates	-11.9743
▁baked	-11.9743
▁Free	-11.9743
▁PR	-11.9745
▁accurately	-11.9748
nAnyway	-11.9749
OT	-11.9751
▁pirate	-11.9751
▁fulfilling	-11.9756
▁beef	-11.9759
EDIT	-11.976
ender	-11.976
▁reps	-11.9762
ky	-11.9764
▁justification	-11.9764
▁puked	-11.9765
▁breaker	-11.9772
▁peanut	-11.9772
▁investigate	-11.9773
▁crowded	-11.9775
▁escalate	-11.9775
▁lamp	-11.9777
▁prevented	-11.978
▁outlook	-11.9788
▁ANYTHING	-11.9789
▁consensus	-11.9789
▁invitation	-11.9789
▁forehead	-11.9789
▁indication	-11.9789
▁mixture	-11.9789
▁elite	-11.9789
▁aisle	-11.9789
▁flipping	-11.9789
▁replacing	-11.979
▁booth	-11.9791
▁pad	-11.9803
BF	-11.9805
▁preferences	-11.9807
▁troubles	-11.9812
▁froze	-11.9817
▁Met	-11.9819
▁notices	-11.982
amp	-11.9821
full	-11.9821
▁magazine	-11.9823
ji	-11.9824
▁paths	-11.9824
▁replying	-11.9825
▁dungeon	-11.9826
▁relieve	-11.9827
▁soup	-11.9827
▁homosexual	-11.9828
▁Kate	-11.9833
▁sour	-11.9835
▁lawyers	-11.9836
▁symbol	-11.984
▁bizarre	-11.9843
▁radiation	-11.9843
▁poking	-11.9843
▁accessible	-11.9844
▁paranoia	-11.9845
▁Adderall	-11.9846
22	-11.9846
▁3/4	-11.985
Recently	-11.985
▁flies	-11.985
▁strongest	-11.9851
rated	-11.9851
▁cc	-11.9852
rage	-11.9853
▁madly	-11.9854
▁varying	-11.9858
ult	-11.9859
▁Learn	-11.9862
▁mage	-11.9863
ko	-11.9865
▁gladly	-11.9867
▁pray	-11.9873
▁Mor	-11.9877
▁lust	-11.9878
▁kitten	-11.9878
▁cups	-11.9887
▁Ni	-11.9893
▁literal	-11.9895
▁reception	-11.9898
▁fraternity	-11.9898
▁chubby	-11.9898
▁unacceptable	-11.9898
▁theatre	-11.9902
▁balancing	-11.9902
!"".	-11.9903
▁signing	-11.9904
basically	-11.9905
please	-11.9905
FUCK	-11.9905
▁honeymoon	-11.9905
▁wings	-11.9907
▁Police	-11.9907
▁metric	-11.9907
fat	-11.9907
▁yrs	-11.9908
▁$1000	-11.9914
▁peer	-11.9918
▁lightly	-11.9928
▁actor	-11.993
▁representative	-11.9934
▁judged	-11.9934
▁thoughtful	-11.9938
▁dismiss	-11.9948
▁fur	-11.995
▁raises	-11.9952
▁museum	-11.9953
▁contrary	-11.9953
▁membership	-11.9954
▁wooden	-11.9954
▁encouragement	-11.9954
pack	-11.9954
▁Ultimately	-11.9954
▁continuously	-11.9955
▁convenience	-11.9955
▁sincerely	-11.9956
▁published	-11.9957
▁demon	-11.9957
▁measures	-11.9961
▁ni	-11.9961
▁sane	-11.9967
▁leak	-11.9968
▁labeled	-11.9971
▁hash	-11.9974
▁$60	-11.9978
▁Dave	-11.9981
okay	-11.9989
▁massively	-11.9989
▁ganking	-11.999
▁McDonald	-11.9993
▁nails	-11.9994
▁rebuild	-11.9997
male	-11.9997
▁surrender	-11.9999
person	-12.0002
Make	-12.0002
▁collective	-12.0004
▁congress	-12.0006
▁independence	-12.0008
▁serial	-12.0008
▁withdrawal	-12.0009
▁rocket	-12.001
▁GTA	-12.0012
each	-12.0012
▁popularity	-12.0012
▁bombs	-12.0016
▁joked	-12.0017
▁cart	-12.0018
▁smoothly	-12.0018
uit	-12.0019
▁pa	-12.002
▁Point	-12.0021
▁edition	-12.0024
▁spine	-12.0024
wow	-12.003
▁Sun	-12.0032
▁sweating	-12.0036
▁drill	-12.0042
▁electrical	-12.0043
▁announce	-12.0045
▁WW	-12.0048
▁dip	-12.0055
▁pie	-12.0056
▁regulations	-12.006
NO	-12.0063
▁organize	-12.0063
▁Disney	-12.0063
▁Italian	-12.0064
open	-12.0065
▁raiding	-12.0065
▁sniper	-12.0066
▁Peter	-12.0067
▁soaked	-12.0073
▁login	-12.0073
uh	-12.0074
▁comedy	-12.0076
▁Di	-12.0078
▁poly	-12.008
▁forgave	-12.0082
▁gram	-12.0084
▁promoted	-12.0086
nAs	-12.0095
▁regions	-12.0096
vis	-12.0096
▁breed	-12.0097
▁sticky	-12.0104
▁MO	-12.0104
▁Valentine	-12.0105
86	-12.0108
▁substantial	-12.0117
▁cleaner	-12.0117
mates	-12.0118
▁favour	-12.0119
▁interfere	-12.0119
▁reducing	-12.0119
▁underlying	-12.0119
▁skipping	-12.012
▁hypothetical	-12.012
▁honey	-12.012
watch	-12.0121
▁merit	-12.0123
▁Matt	-12.0125
▁Background	-12.0125
▁ISP	-12.0126
Once	-12.013
▁Assuming	-12.013
""...	-12.0132
Both	-12.0134
DE	-12.0137
▁slots	-12.0144
▁fade	-12.0144
▁lu	-12.0145
▁lined	-12.0145
▁buck	-12.0147
DS	-12.0149
▁apartments	-12.0152
▁mg	-12.0153
▁(19	-12.0153
lar	-12.0157
▁advocate	-12.0158
▁Step	-12.0158
▁eliminate	-12.0159
▁criticize	-12.0159
▁4)	-12.0161
▁touchy	-12.0162
▁stoner	-12.0165
6.	-12.0166
▁scroll	-12.0168
▁litter	-12.0168
▁comparable	-12.0175
▁intoxicated	-12.0175
▁registration	-12.0175
▁ruling	-12.0175
▁iPad	-12.0176
▁PvE	-12.0176
▁Cue	-12.0177
▁logo	-12.0177
▁bushes	-12.0178
▁pistol	-12.0179
field	-12.0184
Broke	-12.0184
▁lend	-12.0185
▁peaceful	-12.0187
3,	-12.0188
core	-12.0188
▁Computer	-12.0189
▁venture	-12.0189
▁logically	-12.0193
same	-12.0196
▁bye	-12.0202
wood	-12.0204
▁entertain	-12.0209
chan	-12.021
▁fulfill	-12.021
view	-12.0211
▁float	-12.0211
▁socks	-12.0212
once	-12.0215
▁miracle	-12.0216
▁relapse	-12.0216
▁stereotypes	-12.0217
cha	-12.0218
▁adore	-12.0218
Shit	-12.0225
val	-12.0227
▁speculation	-12.0232
▁Crota	-12.0232
▁shore	-12.0232
▁hopped	-12.0232
▁rising	-12.0233
▁freshmen	-12.0233
▁dr	-12.0237
▁stressing	-12.0239
▁consuming	-12.0241
▁Money	-12.0241
▁grounded	-12.0242
▁subs	-12.0248
3.	-12.025
▁opt	-12.0257
▁Starting	-12.0265
control	-12.0265
▁grams	-12.0266
▁electronic	-12.0266
ina	-12.0268
lam	-12.0269
▁85	-12.0272
▁trait	-12.0273
▁tolerate	-12.0273
."""	-12.0276
pick	-12.0276
▁Sea	-12.0278
▁hookup	-12.0279
Sa	-12.0279
▁imply	-12.028
▁governments	-12.0285
▁icon	-12.0285
▁Pen	-12.0286
gu	-12.0289
▁occurrence	-12.0289
▁compensation	-12.0289
▁STILL	-12.0289
▁intercourse	-12.0289
▁civilization	-12.0289
▁imaginary	-12.029
▁Mario	-12.0291
▁greedy	-12.0292
▁networks	-12.0293
▁Garen	-12.0294
▁pur	-12.0296
▁History	-12.0297
Original	-12.0298
great	-12.0298
▁vastly	-12.0301
▁approaches	-12.0302
ese	-12.0302
bel	-12.0303
ving	-12.0305
▁widely	-12.0308
gin	-12.0308
nIn	-12.0309
▁Idk	-12.0311
▁mop	-12.0313
▁timer	-12.0314
](",	-12.0317
▁slice	-12.0317
live	-12.0324
▁duck	-12.0324
▁exploit	-12.0328
▁reciprocate	-12.033
▁winner	-12.0334
▁origin	-12.0337
▁regain	-12.0337
▁dominate	-12.0345
▁literature	-12.0346
▁Spring	-12.0346
▁dragging	-12.0346
▁shaving	-12.0347
▁dosage	-12.035
▁Final	-12.035
▁hopeless	-12.0351
▁rang	-12.0352
▁difficulties	-12.0354
▁Bank	-12.0354
source	-12.0355
▁Ru	-12.0355
▁heroic	-12.0357
▁cannon	-12.0359
▁lord	-12.0359
▁RO	-12.0363
▁demo	-12.0366
away	-12.0366
▁Tech	-12.037
▁wheels	-12.037
▁Saying	-12.037
▁lighting	-12.0371
▁lists	-12.0374
▁aiming	-12.0376
▁arise	-12.0377
▁praise	-12.0387
▁pilot	-12.0389
▁meets	-12.0394
▁48	-12.0395
▁soldier	-12.0397
▁700	-12.0397
▁admin	-12.0399
▁unwilling	-12.0403
▁mandatory	-12.0403
▁yadda	-12.0403
▁enforcement	-12.0404
▁Under	-12.0407
▁nurses	-12.0409
▁alpha	-12.0412
▁wiki	-12.0413
insert	-12.0413
religious	-12.0413
▁harassed	-12.0418
▁li	-12.0419
▁cooling	-12.042
▁voters	-12.0422
▁mystery	-12.0425
▁GP	-12.0428
▁beg	-12.0429
▁proc	-12.043
▁Ke	-12.0433
▁melt	-12.0435
▁coil	-12.0438
▁banana	-12.0448
▁ti	-12.0449
▁:)",	-12.045
▁economics	-12.0454
leg	-12.0454
▁stink	-12.0457
▁abnormal	-12.0461
▁collar	-12.0461
▁Immediately	-12.0461
▁completing	-12.0461
▁legislation	-12.0461
▁incapable	-12.0461
▁nickname	-12.0461
▁spamming	-12.0461
▁chaos	-12.0461
▁pokemon	-12.0462
▁deaf	-12.0462
▁Navy	-12.0462
▁submitted	-12.0462
▁worthwhile	-12.0463
▁shiny	-12.0464
▁skirt	-12.0466
▁thru	-12.0466
▁Fi	-12.0467
tter	-12.0468
▁Battle	-12.047
▁stems	-12.047
possibly	-12.0472
▁Trust	-12.0473
▁centre	-12.0477
▁positioning	-12.048
vy	-12.0482
bro	-12.0483
▁Aside	-12.0484
▁installing	-12.0504
▁margin	-12.0506
▁underage	-12.0507
▁pr	-12.0508
▁3:	-12.0508
▁certificate	-12.0519
▁universities	-12.0519
▁pvp	-12.0519
▁fortunate	-12.052
▁surgeon	-12.052
▁pat	-12.0521
▁acceptance	-12.0522
▁mega	-12.0523
▁warranty	-12.0524
▁heavier	-12.0526
▁spilled	-12.0526
▁Sounds	-12.0529
called	-12.0529
▁FU	-12.0529
],	-12.053
▁helpless	-12.0533
▁daddy	-12.0536
▁grows	-12.054
▁ongoing	-12.0541
▁monsters	-12.0543
▁fog	-12.0543
▁particles	-12.0544
▁releases	-12.0544
▁behaviors	-12.0548
▁tabs	-12.0551
▁interrupt	-12.0552
▁Ca	-12.0553
▁insert	-12.0557
ction	-12.0559
▁laners	-12.0564
▁colleges	-12.0565
▁chapter	-12.0566
▁suspicion	-12.0566
town	-12.0569
▁transaction	-12.0571
▁nu	-12.0574
▁Tried	-12.0576
▁bonds	-12.0577
ants	-12.0578
▁Supply	-12.0578
▁arbitrary	-12.0578
▁clarification	-12.0578
▁crotch	-12.0578
▁debating	-12.0578
▁voltage	-12.0578
▁blizzard	-12.0578
▁MDMA	-12.0578
▁minimize	-12.0578
▁airplane	-12.0578
▁entity	-12.0579
ask	-12.0582
▁shifted	-12.0582
Of	-12.0583
▁liver	-12.0583
bear	-12.0584
▁lurking	-12.0586
▁lethal	-12.0589
college	-12.0589
husband	-12.0589
Life	-12.0589
group	-12.059
▁dial	-12.0591
▁talented	-12.0592
▁woken	-12.0593
yl	-12.0602
▁upgrades	-12.0605
▁confess	-12.0608
▁upload	-12.0609
▁cult	-12.0609
▁sentiment	-12.061
▁painted	-12.0611
▁mat	-12.062
▁diseases	-12.062
▁motivate	-12.0621
▁excel	-12.0622
▁arrangement	-12.0626
▁MM	-12.0633
▁enforce	-12.0634
▁marathon	-12.0637
▁unpleasant	-12.0637
▁hypocritical	-12.0637
▁disbelief	-12.0637
▁comfortably	-12.0637
▁tempted	-12.0637
▁Ireland	-12.0638
▁overtime	-12.0639
▁repairs	-12.0641
fa	-12.0642
▁Dany	-12.0643
▁professors	-12.0646
▁peel	-12.0647
▁Early	-12.0647
▁probation	-12.0648
▁silently	-12.0651
▁lengthy	-12.0652
▁bans	-12.0656
▁damages	-12.0657
▁TI	-12.0659
park	-12.0661
oy	-12.0662
▁nightmares	-12.0664
vol	-12.0666
▁Damn	-12.067
""."	-12.0671
▁dec	-12.0672
▁Friends	-12.0672
cing	-12.0678
▁suited	-12.0679
▁accidents	-12.0679
▁summoner	-12.0682
tors	-12.0687
▁agreeing	-12.0689
mar	-12.0689
▁News	-12.0691
▁extensive	-12.0692
▁rapid	-12.0692
▁Asia	-12.0694
▁captain	-12.0696
▁climax	-12.0696
▁initiative	-12.0696
▁unrealistic	-12.0696
▁nagging	-12.0696
▁homosexuality	-12.0696
thanks	-12.0697
▁portal	-12.0699
These	-12.0699
▁misleading	-12.0699
IVE	-12.0701
▁Dude	-12.0703
▁outweigh	-12.0703
▁dismissed	-12.0706
▁handsome	-12.0706
▁blacked	-12.0708
▁toke	-12.0708
Honestly	-12.0709
Over	-12.0709
show	-12.0713
▁minus	-12.0714
▁triggered	-12.0719
▁laptops	-12.0719
kind	-12.0722
▁smelling	-12.0728
ough	-12.0734
▁outta	-12.0736
pay	-12.0736
▁industrial	-12.0742
▁coaster	-12.0743
▁headaches	-12.0745
ail	-12.0752
▁container	-12.0753
▁implied	-12.0755
▁iPod	-12.0755
▁whiskey	-12.0755
▁wheelchair	-12.0755
▁indicator	-12.0755
▁grace	-12.0756
▁continually	-12.0756
▁Clearly	-12.0756
▁General	-12.0757
▁bowls	-12.0759
▁producing	-12.0759
▁Further	-12.076
▁Comcast	-12.076
▁stem	-12.076
▁Thresh	-12.0761
▁voicemail	-12.0761
▁Health	-12.0763
ologist	-12.0763
▁bum	-12.0763
▁stepping	-12.0768
Tried	-12.0771
▁reminder	-12.0778
lay	-12.0778
▁flick	-12.0781
▁lid	-12.079
▁seeming	-12.079
▁interacting	-12.079
ital	-12.0792
▁seed	-12.0792
▁$400	-12.0793
▁spoil	-12.0793
RA	-12.0793
▁rumors	-12.0798
▁apologise	-12.0799
▁palm	-12.0801
▁stuffed	-12.0804
▁equation	-12.0806
▁analyze	-12.0807
▁LOL	-12.0812
▁unconscious	-12.0812
▁potato	-12.0814
▁NOTHING	-12.0815
▁eternity	-12.0815
▁glory	-12.0815
▁reconcile	-12.0815
▁bummed	-12.0815
▁robbed	-12.0815
▁penny	-12.0815
▁foster	-12.0815
▁denies	-12.0816
▁RIGHT	-12.0816
▁Mc	-12.0818
▁2007	-12.0819
mas	-12.0819
▁THEN	-12.082
▁CLG	-12.0822
▁Said	-12.0825
▁presumably	-12.0827
screen	-12.0827
▁costume	-12.0828
Right	-12.0829
▁Making	-12.083
▁theft	-12.0831
▁employers	-12.0833
▁cur	-12.0835
▁McDonalds	-12.0835
-6	-12.0837
▁rec	-12.0839
▁visa	-12.0841
▁consumed	-12.0841
found	-12.0842
▁divided	-12.0843
▁mono	-12.0847
▁outlet	-12.0848
▁gr	-12.085
gay	-12.0854
▁forming	-12.0855
pal	-12.0857
▁bundle	-12.0859
osis	-12.0861
▁Depend	-12.0864
▁splash	-12.0867
▁scars	-12.0867
▁recipe	-12.0867
▁exp	-12.0868
▁nudes	-12.0868
KE	-12.0869
▁balcony	-12.0875
▁facility	-12.0875
▁horrified	-12.0875
▁phenomenon	-12.0875
▁inflation	-12.0875
▁salad	-12.0876
▁humble	-12.0876
ram	-12.0879
▁CoD	-12.0879
-15	-12.0883
▁tray	-12.0885
▁fiction	-12.0886
▁Better	-12.0886
▁entirety	-12.0887
▁Nick	-12.0889
▁rotate	-12.0889
dom	-12.0891
Sure	-12.0892
▁roaming	-12.0893
▁OH	-12.0893
zone	-12.0894
▁insulted	-12.0895
▁protests	-12.0896
▁Happy	-12.0898
▁Gra	-12.0901
▁remarks	-12.0902
▁forbid	-12.0908
▁behalf	-12.0909
▁SP	-12.091
lot	-12.0912
▁tactic	-12.0916
▁ham	-12.092
cat	-12.0922
▁wander	-12.0925
ola	-12.0925
▁upfront	-12.0927
▁corporation	-12.0935
▁crucial	-12.0936
▁tribunal	-12.0936
▁LIKE	-12.0936
▁flirtatious	-12.0936
▁gossip	-12.0936
▁ripping	-12.0937
▁Afghanistan	-12.0938
▁diversity	-12.0939
▁diving	-12.094
▁invented	-12.0942
▁passage	-12.0948
pretty	-12.0949
▁belongs	-12.0951
job	-12.0954
▁Water	-12.0954
▁allies	-12.0961
itis	-12.0962
▁swinging	-12.0964
▁DA	-12.0964
▁lacks	-12.0965
mark	-12.0966
▁owes	-12.0967
▁convey	-12.0973
▁pickup	-12.0973
hal	-12.0977
▁bow	-12.0979
▁acknowledged	-12.0984
▁permit	-12.0986
race	-12.0987
▁consequence	-12.0991
▁faint	-12.0992
▁lee	-12.0993
▁powered	-12.0993
1,	-12.0994
▁Mi	-12.0996
▁kindergarten	-12.0997
▁puking	-12.0997
▁razor	-12.0997
▁trinket	-12.0997
▁spice	-12.0997
▁yoga	-12.0997
▁activate	-12.0998
▁condescending	-12.0998
▁ownership	-12.0998
▁distinction	-12.1
▁Junior	-12.1001
▁Android	-12.1001
▁PTSD	-12.1001
▁fried	-12.1002
▁persistent	-12.1002
▁chore	-12.1002
▁WWII	-12.1003
▁Spirit	-12.1005
▁fiber	-12.1006
▁bell	-12.1008
▁joints	-12.1009
▁upwards	-12.101
Almost	-12.1011
▁intern	-12.1017
▁contained	-12.1019
▁Open	-12.1021
vin	-12.1023
▁gloves	-12.1023
ink	-12.1029
thought	-12.1032
▁casters	-12.1032
lt	-12.1032
▁tackle	-12.1044
▁broadcast	-12.1046
▁instructor	-12.1052
▁gesture	-12.1053
▁advantages	-12.1055
▁prayer	-12.1056
▁detention	-12.1059
▁varies	-12.1059
▁hiking	-12.1059
▁researching	-12.1059
▁fold	-12.1061
▁educational	-12.1061
having	-12.1062
▁flips	-12.1063
▁Everybody	-12.1064
▁thrilled	-12.1065
▁doomed	-12.1066
▁circlejerk	-12.1066
▁challenged	-12.1066
▁terrorist	-12.1076
▁poisoning	-12.1076
▁Sch	-12.1077
▁idiotic	-12.1081
▁chairs	-12.1084
65	-12.1086
▁static	-12.1087
these	-12.109
Seeing	-12.109
ans	-12.1092
▁Feeling	-12.1094
▁reacted	-12.1102
▁patrol	-12.1102
▁estimate	-12.1105
nThen	-12.1105
▁snacks	-12.1106
▁ft	-12.1108
▁rave	-12.1108
▁billions	-12.1115
▁flights	-12.1115
▁acquaintances	-12.1117
▁Item	-12.1118
▁virtual	-12.112
▁classmate	-12.112
▁chef	-12.112
▁Jeff	-12.112
▁promising	-12.112
▁association	-12.1121
▁dime	-12.1122
▁stimulation	-12.1123
▁disappointing	-12.1127
▁Government	-12.1128
▁Wrong	-12.1129
▁optimistic	-12.1129
every	-12.1129
▁knight	-12.1129
▁wa	-12.113
bf	-12.1133
▁trucks	-12.1134
▁SA	-12.1136
▁refers	-12.1136
▁Mon	-12.1143
band	-12.1144
▁leaned	-12.1147
▁albeit	-12.115
▁observe	-12.1154
▁replay	-12.1155
ification	-12.1158
▁disrespect	-12.1159
▁belongings	-12.1159
47	-12.116
▁smack	-12.1161
add	-12.1165
▁compensate	-12.1166
▁evolve	-12.1166
▁wo	-12.1173
nuck	-12.1174
▁decently	-12.1175
▁gag	-12.1178
-10	-12.1178
spec	-12.1179
▁sued	-12.1182
▁adderall	-12.1182
▁irresponsible	-12.1182
▁suspension	-12.1182
▁tendencies	-12.1182
▁diverse	-12.1182
▁absence	-12.1182
▁inventory	-12.1183
▁corruption	-12.1183
▁sweetheart	-12.1185
▁jam	-12.1186
bot	-12.1187
▁restricted	-12.1188
▁purchases	-12.119
▁dense	-12.119
▁magically	-12.1191
▁bashing	-12.1194
▁pi	-12.1194
▁efficiently	-12.1195
ros	-12.1202
▁VA	-12.1202
comp	-12.1204
▁gig	-12.1208
▁stares	-12.1208
▁True	-12.1209
▁healed	-12.1214
aving	-12.1216
▁horses	-12.1217
▁vomiting	-12.1217
▁CT	-12.1218
▁legends	-12.1219
▁contracts	-12.1221
SH	-12.1221
▁ingredients	-12.1224
▁exceptional	-12.1227
▁mar	-12.123
ita	-12.1231
▁hips	-12.1231
▁compound	-12.1232
▁escort	-12.1236
▁Ten	-12.1237
▁supplement	-12.1241
▁160	-12.1242
▁targeted	-12.1243
give	-12.1243
▁rap	-12.1243
▁Summer	-12.1245
▁craigslist	-12.1245
▁crippling	-12.1245
▁fountain	-12.1245
▁retrospect	-12.1245
▁vegetarian	-12.1245
▁visibly	-12.1245
▁propaganda	-12.1245
▁Hollywood	-12.1245
▁IRL	-12.1245
▁tinder	-12.1245
▁cabinet	-12.1245
▁keen	-12.1245
ash	-12.1246
▁squishy	-12.1246
▁DRM	-12.1246
▁fries	-12.1246
▁monkey	-12.1247
LL	-12.1254
UL	-12.1256
▁turrets	-12.1257
▁Wikipedia	-12.1257
▁hammered	-12.1258
Would	-12.126
xd	-12.126
black	-12.1261
▁hateful	-12.1263
)...	-12.1265
▁seasons	-12.1266
sized	-12.1268
▁stormed	-12.1269
▁rewarded	-12.1273
Mart	-12.1274
▁requir	-12.1279
▁App	-12.1279
▁vegetables	-12.1284
▁engineers	-12.1287
lp	-12.1291
▁Kids	-12.1302
▁dressing	-12.1304
▁3-5	-12.1305
▁suits	-12.1307
▁inferior	-12.1307
▁50/50	-12.1308
▁demographic	-12.1308
▁duties	-12.1308
▁sought	-12.1308
▁explosive	-12.1308
▁verge	-12.1308
▁RNG	-12.1308
▁addictive	-12.1308
-12	-12.1309
ching	-12.1309
▁THC	-12.1311
▁alley	-12.1311
/3	-12.1313
▁destructive	-12.1315
▁deadly	-12.1317
▁CM	-12.1319
▁wandering	-12.132
▁careers	-12.1321
▁Los	-12.1325
pit	-12.1325
▁Religion	-12.1327
Li	-12.1329
▁Ice	-12.133
▁incidents	-12.1331
▁Lol	-12.1339
▁Ron	-12.1343
ham	-12.1346
▁34	-12.1346
▁suffers	-12.1346
drive	-12.1348
▁boil	-12.1348
▁arch	-12.1352
▁scrub	-12.1358
▁Fe	-12.136
La	-12.1365
▁bachelor	-12.1368
▁pepper	-12.1369
▁circumstance	-12.1369
▁Santorum	-12.1371
▁vicious	-12.1371
▁acne	-12.1371
▁villain	-12.1375
▁Smith	-12.1376
mother	-12.1377
By	-12.1377
▁snooping	-12.1379
▁teaches	-12.1379
MB	-12.138
▁dread	-12.138
Want	-12.1381
▁Such	-12.1381
▁Mass	-12.1381
▁HOW	-12.1382
women	-12.1387
▁ranting	-12.1387
▁photographer	-12.1388
ara	-12.1389
▁finishes	-12.1389
▁Side	-12.1396
▁mph	-12.1397
des	-12.1398
▁sperm	-12.1408
▁absorb	-12.1413
▁sticker	-12.1417
▁Amy	-12.1419
▁trace	-12.1425
▁jet	-12.1428
▁1200	-12.1428
lon	-12.1429
▁salvage	-12.1434
▁baggage	-12.1435
▁nonetheless	-12.1435
▁valve	-12.1435
▁dried	-12.1435
▁frantically	-12.1435
▁impatient	-12.1435
▁avid	-12.1436
▁herpes	-12.1436
▁Yasuo	-12.1439
▁Frank	-12.1443
▁Australian	-12.1444
▁aliens	-12.1447
zer	-12.1448
second	-12.1451
TC	-12.1451
Vi	-12.1454
▁Lu	-12.1459
▁roots	-12.146
ency	-12.1462
▁charger	-12.1462
▁credits	-12.1462
▁environmental	-12.1474
▁Run	-12.1474
af	-12.1475
science	-12.1476
▁fla	-12.1476
ppy	-12.1481
▁enable	-12.149
▁handy	-12.149
ld	-12.1493
▁foolish	-12.1496
▁loneliness	-12.1499
▁leadership	-12.1499
▁thigh	-12.15
▁pedophile	-12.15
▁slope	-12.1502
▁Between	-12.1502
▁Shortly	-12.1502
▁consists	-12.1503
▁crashes	-12.1504
▁Wild	-12.1506
▁passwords	-12.1506
▁STD	-12.151
▁tablet	-12.1513
▁fitting	-12.1515
rest	-12.1515
▁zip	-12.1515
▁defeated	-12.1516
▁admits	-12.1517
-0	-12.1519
▁downward	-12.1521
-5	-12.1526
than	-12.1528
▁investments	-12.1532
▁frat	-12.1535
88	-12.1536
▁senses	-12.1538
▁tease	-12.1539
▁4-	-12.1541
note	-12.1542
mus	-12.1543
▁relaxing	-12.1544
▁rated	-12.1547
▁combine	-12.1547
▁colleagues	-12.1552
uite	-12.1553
▁bay	-12.1554
5\	-12.1555
nEdit	-12.1555
......	-12.1558
▁kindly	-12.156
▁graph	-12.1562
▁desirable	-12.1563
▁fwb	-12.1563
▁puddle	-12.1563
▁saturday	-12.1563
▁proving	-12.1564
▁bullies	-12.1564
▁potatoes	-12.1565
▁torrent	-12.1565
▁sunday	-12.1565
▁System	-12.1567
▁influenced	-12.1569
▁Anyhow	-12.1569
▁Far	-12.1573
▁Cool	-12.1573
gl	-12.1576
▁catches	-12.1579
assuming	-12.158
gaming	-12.1582
▁Jo	-12.1583
▁pumped	-12.1583
Le	-12.1586
▁meter	-12.1589
position	-12.1596
1\	-12.1599
Ra	-12.16
▁Cat	-12.1601
wards	-12.1604
PL	-12.1606
▁fa	-12.1606
▁cracking	-12.1612
▁contributed	-12.1612
▁picky	-12.1613
▁mistaken	-12.1615
▁detect	-12.1616
OH	-12.1616
▁mill	-12.1617
ov	-12.162
▁flaw	-12.1621
▁privilege	-12.1622
▁BT	-12.1622
▁adamant	-12.1624
▁robot	-12.1626
▁plague	-12.1628
▁probability	-12.1628
▁violation	-12.1629
▁relies	-12.1629
▁explosion	-12.1629
▁premise	-12.1629
▁panicking	-12.1629
▁OCD	-12.1629
▁confirmation	-12.163
▁guardian	-12.1631
▁competent	-12.1631
rating	-12.1634
▁wording	-12.1636
fight	-12.1637
▁brag	-12.1639
▁bowling	-12.1639
▁violated	-12.164
▁escaped	-12.164
▁Greg	-12.1646
until	-12.1646
eries	-12.1648
▁punk	-12.1649
!!!!	-12.1649
stand	-12.165
▁schooling	-12.165
▁(10	-12.1655
▁quad	-12.1656
nYou	-12.1656
▁noon	-12.1657
Give	-12.166
inter	-12.1661
▁trainer	-12.1661
77	-12.1663
rid	-12.1664
ung	-12.1666
▁Bear	-12.1666
BS	-12.1671
HA	-12.1675
More	-12.1675
▁variables	-12.1679
▁antibiotics	-12.168
▁normals	-12.168
▁seeds	-12.1681
▁orgasms	-12.1682
▁reboot	-12.1685
▁pushy	-12.1685
weight	-12.1687
question	-12.1689
▁institution	-12.1692
▁shrug	-12.1693
▁beneath	-12.1694
▁deleting	-12.1694
▁contemplating	-12.1694
▁database	-12.1694
▁ought	-12.1694
▁inspection	-12.1695
▁rose	-12.1697
▁geek	-12.1697
▁limiting	-12.1699
▁shutting	-12.17
▁HELP	-12.17
▁uh	-12.1701
▁greeted	-12.1701
▁Kha	-12.1703
▁expectation	-12.1704
▁Small	-12.1706
sports	-12.1711
Probably	-12.1711
▁Left	-12.1712
brother	-12.1712
▁hearts	-12.1713
▁ka	-12.1714
▁recommendations	-12.1715
▁rash	-12.1717
▁assassin	-12.1717
▁outdated	-12.1718
▁Human	-12.1718
▁tra	-12.1719
▁needless	-12.172
▁Kill	-12.172
▁aka	-12.1721
▁fixes	-12.1721
▁Cop	-12.1724
/5	-12.1726
▁separately	-12.1729
▁Grow	-12.1731
▁pls	-12.1733
▁mock	-12.1734
bat	-12.1735
▁chew	-12.1738
aver	-12.1742
▁Col	-12.1743
▁ramble	-12.1743
small	-12.1745
▁groom	-12.1748
36	-12.1748
"".","	-12.175
▁bash	-12.1753
▁$9	-12.1755
▁cautious	-12.1755
▁annual	-12.1756
▁Val	-12.1757
▁fetus	-12.1758
▁horrific	-12.1759
nThey	-12.1759
▁necessity	-12.1759
▁shrugged	-12.1759
▁seller	-12.176
▁introducing	-12.176
▁deliberately	-12.1761
▁Jan	-12.1763
▁acquaintance	-12.1763
▁Youtube	-12.1763
▁infected	-12.1763
▁franchise	-12.1763
▁profitable	-12.1764
▁settling	-12.1764
▁identified	-12.1765
▁IF	-12.1766
▁hangover	-12.1767
▁headset	-12.1767
▁SE	-12.1768
▁arguably	-12.1768
▁masses	-12.1768
▁BO	-12.177
fact	-12.1772
▁matchup	-12.1772
ani	-12.1773
craft	-12.1774
▁bumped	-12.1775
▁implying	-12.1776
broke	-12.1776
Wife	-12.1778
cI	-12.1778
ore	-12.1779
▁violently	-12.1779
actually	-12.1779
▁ga	-12.1779
team	-12.1779
aid	-12.1786
gate	-12.1795
▁moms	-12.1797
▁prep	-12.1801
▁swearing	-12.1801
▁dumping	-12.1806
gue	-12.1807
▁flowing	-12.1808
▁Alright	-12.1811
ancy	-12.1812
▁sons	-12.1818
▁ED	-12.1818
▁PT	-12.1819
▁comics	-12.182
fix	-12.1821
▁Stannis	-12.1826
▁casino	-12.1826
▁vibrator	-12.1826
▁amateur	-12.1826
▁pursuit	-12.1826
▁toddler	-12.1826
▁crave	-12.1826
▁uneasy	-12.1826
pan	-12.1827
lane	-12.1828
rie	-12.1832
▁housemate	-12.1838
▁Might	-12.184
▁regulation	-12.1841
print	-12.1842
father	-12.1844
Keep	-12.1844
▁nuke	-12.1845
attack	-12.1851
▁badge	-12.1857
ken	-12.186
▁trades	-12.1863
▁advised	-12.1864
▁res	-12.1865
▁Fa	-12.1872
▁reader	-12.1876
▁1/3	-12.1883
▁blend	-12.1886
▁explicit	-12.1888
▁clinical	-12.189
▁Origin	-12.189
▁german	-12.1891
▁appetite	-12.1892
▁Ryan	-12.1892
▁starving	-12.1892
▁ppl	-12.1893
▁stray	-12.1893
▁guards	-12.1893
▁foam	-12.1894
▁vegan	-12.1894
▁absent	-12.1894
▁luxury	-12.1895
▁playground	-12.1896
▁feasible	-12.1897
▁observation	-12.1897
▁dev	-12.1898
▁stove	-12.1899
▁basket	-12.1899
▁piracy	-12.1899
▁Firstly	-12.19
▁bait	-12.1902
▁Mini	-12.1902
▁bout	-12.1902
▁Near	-12.1904
▁freezer	-12.1904
▁pastor	-12.1905
ole	-12.1906
stupid	-12.1907
▁Girls	-12.1909
rent	-12.1909
▁dominated	-12.1914
▁exhibit	-12.1916
▁beam	-12.1916
BO	-12.1917
▁Parents	-12.1926
▁NYAN	-12.1928
▁appointments	-12.1928
Looking	-12.1933
▁hesitate	-12.1943
▁conclude	-12.1945
▁mushrooms	-12.1946
▁SHE	-12.1946
▁represents	-12.1948
▁Ci	-12.1949
▁stomp	-12.1951
ush	-12.1952
▁DUI	-12.1959
▁destiny	-12.1959
▁intensity	-12.1959
▁shampoo	-12.1959
▁upbringing	-12.1959
▁whiny	-12.1959
▁gauge	-12.1959
▁EVERYONE	-12.1959
▁swore	-12.1959
▁opposition	-12.1959
▁dining	-12.196
▁legalization	-12.1961
▁pseudo	-12.1962
▁Vietnam	-12.1964
▁ninja	-12.1964
▁Storm	-12.1964
▁Major	-12.1966
▁disagreement	-12.1968
▁Union	-12.1969
▁$150	-12.1971
▁counters	-12.1973
▁taller	-12.1974
▁Word	-12.1975
▁declared	-12.1977
▁determin	-12.1977
▁brake	-12.1979
▁Sal	-12.198
MP	-12.1985
Any	-12.1986
Se	-12.1989
nAt	-12.1994
▁Miss	-12.1994
fish	-12.1997
story	-12.2002
▁gal	-12.2004
▁construct	-12.2009
▁Democrats	-12.2012
▁bitchy	-12.2015
▁comforting	-12.2021
▁ST	-12.2022
IS	-12.2022
▁blatant	-12.2023
▁cognitive	-12.2027
▁agencies	-12.2027
▁cellphone	-12.2027
trip	-12.2028
▁realistically	-12.2028
km	-12.2029
▁Ezreal	-12.203
▁vest	-12.2032
log	-12.2033
▁creator	-12.2034
▁screenshot	-12.2035
Game	-12.2037
▁16,	-12.2037
▁interrupted	-12.2037
▁melted	-12.2038
via	-12.2041
▁relat	-12.2042
▁zombies	-12.2042
▁Control	-12.2044
▁touches	-12.2045
▁wolf	-12.2046
proof	-12.2047
female	-12.2047
Black	-12.2048
▁Yi	-12.205
▁Constitution	-12.2052
▁cha	-12.2052
▁traded	-12.206
ica	-12.2062
▁flames	-12.2062
▁playful	-12.2064
been	-12.2065
und	-12.2068
38	-12.2072
▁ruled	-12.2074
▁Low	-12.2075
TE	-12.2078
▁molecules	-12.2078
existent	-12.2079
▁acquire	-12.2079
Car	-12.2079
34	-12.208
cons	-12.2082
▁sizes	-12.2083
NS	-12.2086
laws	-12.2087
ute	-12.2089
▁Head	-12.2092
▁categories	-12.2095
▁recognition	-12.2095
▁celebrating	-12.2095
▁tumor	-12.2095
▁dramatically	-12.2096
sec	-12.2096
▁DID	-12.2096
▁Ohio	-12.2097
▁dug	-12.2098
▁footage	-12.2098
▁Senior	-12.2101
support	-12.2102
▁overheard	-12.2103
▁viewpoint	-12.2103
▁momentum	-12.2105
▁sweaty	-12.2106
▁memes	-12.2108
▁Italy	-12.211
▁Ko	-12.2111
perfect	-12.2115
▁crawling	-12.2115
hopefully	-12.2116
▁patent	-12.2118
▁Hand	-12.2118
ec	-12.212
ju	-12.2122
▁AI	-12.2125
lessly	-12.2127
▁adventures	-12.213
▁beats	-12.2133
▁Art	-12.2134
▁TH	-12.2138
▁troops	-12.214
▁blur	-12.2142
▁dock	-12.2143
▁drift	-12.2146
▁reassure	-12.2147
▁pipes	-12.2148
▁(22	-12.2148
▁(18	-12.215
▁puff	-12.2151
wall	-12.2153
▁comm	-12.2158
ANT	-12.2162
▁ideology	-12.2163
▁penalty	-12.2163
▁jazz	-12.2163
▁slipping	-12.2164
▁sector	-12.2164
▁capitalism	-12.2164
▁boarding	-12.2165
▁forgiven	-12.2166
▁hysterically	-12.2166
▁cardboard	-12.2166
▁maturity	-12.2167
▁spiders	-12.2168
ule	-12.2171
▁Cross	-12.2171
▁Student	-12.2174
▁chart	-12.2174
▁charming	-12.2175
▁Four	-12.2177
▁ideals	-12.2178
▁praying	-12.2179
▁sections	-12.2181
bound	-12.2184
Rick	-12.2185
▁2-	-12.2186
▁rot	-12.2186
▁pal	-12.2186
tech	-12.2187
Made	-12.2188
▁displays	-12.2189
▁pains	-12.2189
▁musician	-12.219
▁Fall	-12.2193
▁processed	-12.2195
▁Roman	-12.2198
ell	-12.2199
▁ships	-12.2202
▁hosting	-12.2203
▁downloading	-12.2204
▁Anti	-12.2206
match	-12.221
▁masturbated	-12.221
▁nutrition	-12.2214
▁Solo	-12.2216
▁constitution	-12.2218
els	-12.222
▁alt	-12.2223
Ha	-12.2223
!?	-12.2224
▁jerking	-12.2225
aries	-12.2225
▁translate	-12.2226
▁warming	-12.2226
change	-12.223
▁essence	-12.2232
▁swollen	-12.2232
▁clown	-12.2232
▁waving	-12.2233
▁prevents	-12.2233
▁wifi	-12.2236
▁subsequently	-12.2236
Da	-12.2236
▁strings	-12.2238
▁blurt	-12.224
▁Rock	-12.224
▁manually	-12.2241
▁Gaming	-12.2242
▁Mad	-12.2243
▁Island	-12.2243
▁vaguely	-12.2244
▁tar	-12.2246
▁tad	-12.2247
hate	-12.225
▁Know	-12.225
▁observed	-12.225
fl	-12.2251
▁tu	-12.2251
dead	-12.2254
Sometimes	-12.2254
▁Family	-12.2254
Po	-12.2255
▁parenting	-12.2255
Lo	-12.2256
▁neuro	-12.2257
▁GOD	-12.2257
▁biting	-12.226
zz	-12.2264
▁voices	-12.2264
je	-12.2271
start	-12.2271
▁cuddled	-12.2274
▁grinder	-12.228
Hav	-12.2281
Only	-12.2283
▁beans	-12.2286
▁Elo	-12.2286
▁invade	-12.2287
ada	-12.2287
IE	-12.2292
different	-12.2296
▁characteristics	-12.23
Ti	-12.23
▁guardians	-12.23
▁battles	-12.2301
▁adorable	-12.2302
▁happiest	-12.2302
▁introduction	-12.2302
▁obscure	-12.2302
▁coherent	-12.2302
▁sanity	-12.2302
▁Nice	-12.2302
▁unfamiliar	-12.2302
▁Haven	-12.2304
van	-12.2305
▁forgiveness	-12.2305
▁cheapest	-12.2306
▁obsession	-12.2307
▁continent	-12.2307
▁splitting	-12.2308
▁considerate	-12.2308
▁ethnic	-12.2308
▁conf	-12.2309
▁lb	-12.231
▁moaning	-12.231
▁Armor	-12.231
▁obliged	-12.2311
▁circuit	-12.2312
▁stalking	-12.2312
▁peed	-12.2312
▁sibling	-12.2313
▁populations	-12.2314
▁bald	-12.2317
▁heals	-12.2317
thinking	-12.2319
▁acc	-12.232
Although	-12.2324
▁Doctor	-12.2326
"".",	-12.2326
▁painfully	-12.2328
▁designer	-12.2334
▁prof	-12.2335
▁Way	-12.2339
▁gu	-12.2341
▁individually	-12.2343
▁saves	-12.2344
▁Har	-12.2352
▁Jen	-12.2353
▁seperate	-12.2358
bus	-12.236
▁swell	-12.2364
▁GB	-12.2366
▁radical	-12.2367
▁mobs	-12.2371
▁empire	-12.2372
▁mortified	-12.2372
▁unprotected	-12.2372
▁Teemo	-12.2372
▁bragging	-12.2372
▁ironic	-12.2373
▁bolt	-12.2375
▁Kevin	-12.2376
▁recess	-12.2376
▁assumes	-12.2376
▁alongside	-12.2378
▁surf	-12.238
▁Earlier	-12.2381
▁prospect	-12.2382
▁packages	-12.2382
▁searches	-12.2383
▁colleague	-12.2383
▁Space	-12.2384
!!!""	-12.2385
▁sha	-12.2385
▁acquired	-12.2388
▁st	-12.2391
▁Nazi	-12.2392
wtf	-12.2394
Story	-12.2396
▁Bay	-12.2401
▁triggers	-12.2403
meaning	-12.2404
▁alternatives	-12.2405
iser	-12.2406
▁angel	-12.2407
▁ca	-12.2407
▁charm	-12.2408
harm	-12.2408
▁Ed	-12.2409
▁threatens	-12.2409
BA	-12.241
▁grants	-12.241
▁1/4	-12.2412
▁operations	-12.2413
thank	-12.2414
▁questionable	-12.2415
▁notification	-12.2417
▁Bu	-12.2417
dude	-12.242
▁wounds	-12.2426
▁achievements	-12.2429
▁possess	-12.2434
-4	-12.2437
▁planets	-12.2439
▁networking	-12.244
▁chooses	-12.2441
ude	-12.2442
▁drastic	-12.2442
▁elephant	-12.2442
▁inadequate	-12.2442
▁instagram	-12.2442
▁locking	-12.2442
▁Southern	-12.2442
eating	-12.2442
▁unlimited	-12.2443
▁(23	-12.2443
▁grid	-12.2444
▁Leona	-12.2444
▁attendant	-12.2449
▁jungling	-12.2452
▁insignificant	-12.2452
▁paste	-12.2453
▁Cu	-12.2455
▁Easter	-12.2456
▁calculated	-12.2458
▁insisting	-12.2459
UD	-12.2459
▁mastery	-12.246
▁Mum	-12.2461
-8	-12.2464
▁oriented	-12.2464
buy	-12.2464
▁aggressively	-12.2466
▁roomate	-12.2466
▁collapsed	-12.2468
▁coma	-12.2468
▁Teacher	-12.247
▁tin	-12.247
▁sided	-12.2471
▁doses	-12.2472
AG	-12.2472
▁ringing	-12.248
▁Cal	-12.248
▁communicated	-12.248
▁110	-12.2494
base	-12.2494
loss	-12.2496
▁implications	-12.2497
scale	-12.2498
▁choke	-12.2501
▁needle	-12.2501
▁restore	-12.2501
MS	-12.2505
▁insensitive	-12.2506
oz	-12.2509
▁dealers	-12.251
▁Latin	-12.2511
▁ignite	-12.2513
▁infidelity	-12.2513
▁whistle	-12.2513
▁autism	-12.2513
▁nausea	-12.2513
▁fever	-12.2513
▁admission	-12.2513
▁laziness	-12.2513
▁immoral	-12.2514
▁notebook	-12.2515
▁rebel	-12.2515
▁debit	-12.2515
▁syndrome	-12.2515
▁dice	-12.2518
▁Federal	-12.2518
▁2006	-12.2519
erath	-12.2521
▁poker	-12.2522
▁fundamentally	-12.2522
▁planes	-12.2524
▁component	-12.2527
▁Samsung	-12.2528
▁achievement	-12.2529
▁crushes	-12.253
▁ba	-12.253
▁overthinking	-12.253
▁Hence	-12.2535
Christian	-12.2536
Wait	-12.2537
headed	-12.2537
▁lyrics	-12.2541
▁(25	-12.2542
▁wonders	-12.2547
▁fathers	-12.2547
▁measured	-12.2559
▁tattoos	-12.256
clock	-12.2564
▁(30	-12.2564
▁admire	-12.2568
▁employ	-12.257
find	-12.2571
▁flamed	-12.2571
▁wary	-12.2571
fo	-12.2573
years	-12.2573
▁situational	-12.2576
▁tilt	-12.2577
dog	-12.2579
▁immense	-12.258
beat	-12.2582
▁Gen	-12.2583
▁emphasize	-12.2584
▁executive	-12.2585
▁metabolism	-12.2585
▁penetration	-12.2585
▁wrestling	-12.2585
▁celebration	-12.2585
▁Tower	-12.2585
▁stiff	-12.2585
▁Fallout	-12.2585
▁bugging	-12.2585
▁weaknesses	-12.2586
▁Few	-12.2587
▁Verizon	-12.2587
▁monogamous	-12.2588
▁Simply	-12.2589
▁sequence	-12.2589
▁wizard	-12.259
▁Michigan	-12.259
▁Manager	-12.2592
▁tide	-12.2593
▁Turned	-12.2595
road	-12.2597
▁gallon	-12.2599
▁neighbour	-12.2601
▁clone	-12.2601
▁bearing	-12.2602
▁estimated	-12.2603
▁athlete	-12.2604
lift	-12.2606
Try	-12.2607
▁recreational	-12.2608
literally	-12.2609
▁2016	-12.2609
rri	-12.2612
tank	-12.2612
▁sucker	-12.2612
▁vacations	-12.2615
lier	-12.2616
▁alike	-12.2627
▁HATE	-12.2628
▁bunk	-12.2632
▁murderer	-12.2634
months	-12.2637
▁mobo	-12.2638
▁teleport	-12.2639
SA	-12.264
▁prompt	-12.2643
▁BR	-12.2648
cess	-12.2648
▁tremendous	-12.2652
▁obsessive	-12.2652
▁Boyfriend	-12.2653
brain	-12.2653
▁vivid	-12.2655
▁principles	-12.2655
▁puzzle	-12.2656
▁manufacturing	-12.2656
▁societies	-12.2656
▁correlation	-12.2656
▁equipped	-12.2656
▁hydrogen	-12.2657
▁Britain	-12.2657
▁transmission	-12.2657
▁superficial	-12.2657
▁Native	-12.2658
▁20-30	-12.2658
▁isolation	-12.2659
▁muscular	-12.266
▁aggression	-12.266
▁readily	-12.2661
▁DJ	-12.2662
▁judgmental	-12.2665
▁BA	-12.2665
▁accuracy	-12.2666
▁discovery	-12.2667
▁knowledgeable	-12.2669
IP	-12.2669
▁Full	-12.2671
▁bumper	-12.2672
▁variable	-12.2672
▁churches	-12.2673
▁Stone	-12.2673
▁screens	-12.2674
▁converted	-12.2674
meter	-12.2675
worth	-12.2677
▁organs	-12.2677
▁drained	-12.2679
▁Thought	-12.268
forward	-12.2681
video	-12.2681
▁firearms	-12.2681
▁stalker	-12.2683
▁pounding	-12.2684
▁sim	-12.2685
▁folk	-12.2685
29	-12.2685
▁Doing	-12.2687
aly	-12.2687
Many	-12.2693
▁showers	-12.2694
▁suite	-12.2697
▁shade	-12.2704
east	-12.2712
▁execute	-12.2713
▁travels	-12.2713
▁brownies	-12.2716
▁spy	-12.2724
eye	-12.2725
born	-12.2728
PCPartPicker	-12.2729
▁bandwidth	-12.2729
▁dessert	-12.2729
▁twelve	-12.2729
▁velocity	-12.2729
▁gambling	-12.2729
▁upgrading	-12.2729
▁rogue	-12.2729
▁decay	-12.2729
▁thighs	-12.2729
▁aircraft	-12.273
▁priorities	-12.273
▁dental	-12.273
▁problematic	-12.2732
▁index	-12.2732
▁Hearthstone	-12.2732
▁gaze	-12.2733
cs	-12.2733
▁attitudes	-12.2734
▁Lucian	-12.2734
▁occupied	-12.2736
lings	-12.2737
▁Dream	-12.2737
ari	-12.2737
▁Aunt	-12.2737
▁Lost	-12.2738
▁NSFW	-12.2739
▁($	-12.2741
fit	-12.2743
66	-12.2746
▁instrument	-12.2746
▁wildly	-12.2746
▁concluded	-12.2747
everyone	-12.2755
EA	-12.2756
buff	-12.276
▁Five	-12.2761
▁Hot	-12.2764
▁lp	-12.2765
▁prob	-12.2765
▁singer	-12.2769
▁Price	-12.2774
▁perk	-12.2774
▁hunger	-12.2777
▁III	-12.2778
▁km	-12.2778
active	-12.2779
▁fighter	-12.2779
▁fe	-12.278
▁lion	-12.278
▁courts	-12.278
▁hive	-12.2781
▁imp	-12.2783
OL	-12.2784
▁Nor	-12.2787
▁19,	-12.2787
▁retrieve	-12.279
▁grill	-12.2794
gle	-12.2796
pping	-12.2796
▁kindness	-12.2798
▁Titan	-12.2801
▁favors	-12.2801
▁Supreme	-12.2802
▁bounty	-12.2802
▁clerk	-12.2802
▁compatibility	-12.2802
▁memorable	-12.2802
▁oblivion	-12.2802
▁pharmacy	-12.2802
▁Target	-12.2802
▁dripping	-12.2802
▁Potter	-12.2802
▁pornography	-12.2802
▁misery	-12.2802
▁bride	-12.2803
▁halt	-12.2803
▁offspring	-12.2804
▁branches	-12.2805
▁hormonal	-12.2806
▁cheesy	-12.2806
▁Break	-12.2807
▁(24	-12.2808
▁ensued	-12.2808
▁translation	-12.2808
▁Modern	-12.2808
ras	-12.2808
▁warn	-12.281
▁respectively	-12.281
▁aunts	-12.2813
▁strap	-12.2815
nOne	-12.2818
uni	-12.282
▁tuck	-12.2822
▁Atheist	-12.2824
▁resident	-12.2829
shop	-12.2838
either	-12.2838
▁purposely	-12.2839
rank	-12.2846
ich	-12.2846
▁PE	-12.2849
▁genetics	-12.2852
4,	-12.2852
▁Bell	-12.2853
esque	-12.2854
dies	-12.286
▁bases	-12.2864
▁calculate	-12.2865
▁tow	-12.2866
cus	-12.2868
path	-12.287
pass	-12.2872
▁glitch	-12.2874
tell	-12.2874
▁BIOS	-12.2875
▁cotton	-12.2875
▁piano	-12.2875
▁summarize	-12.2875
▁thrust	-12.2876
▁shaft	-12.2876
▁lottery	-12.2876
▁interface	-12.2876
▁Spain	-12.2876
▁faking	-12.2876
case	-12.2877
▁involvement	-12.2877
▁announcement	-12.2878
▁Fine	-12.288
▁criteria	-12.2881
▁spotted	-12.2881
nThanks	-12.2881
▁cafe	-12.2881
▁resentful	-12.2881
▁weirdest	-12.2889
iate	-12.2893
▁Absolutely	-12.2893
▁Level	-12.2895
▁civilian	-12.2895
▁pond	-12.2897
▁Gun	-12.2898
▁revealing	-12.2898
him	-12.2899
▁logs	-12.29
true	-12.2901
▁launched	-12.2901
Watch	-12.2902
▁bumps	-12.2904
Someone	-12.2904
During	-12.2904
01	-12.2905
girls	-12.2905
▁fooled	-12.2905
▁Ashe	-12.2905
▁creeped	-12.2906
▁describes	-12.2909
▁withdraw	-12.2921
▁apologizes	-12.2922
▁mon	-12.2923
▁AN	-12.2925
▁gi	-12.2929
▁promo	-12.2932
▁Anna	-12.2935
ula	-12.2935
▁Tu	-12.2937
▁followers	-12.2938
▁sy	-12.2938
(?)	-12.2943
▁counted	-12.2943
▁Shi	-12.2944
▁erect	-12.2949
▁Street	-12.295
▁negativity	-12.295
▁prioritize	-12.295
▁tennis	-12.295
▁jewelry	-12.295
▁radar	-12.295
▁dealership	-12.295
▁urinal	-12.2952
▁Ab	-12.2953
▁lightning	-12.2954
▁releas	-12.2957
▁stomped	-12.296
TR	-12.296
▁matching	-12.2961
▁hacked	-12.2962
▁eSports	-12.2963
▁Iran	-12.2965
68	-12.2966
▁screws	-12.2967
▁bicycle	-12.2969
EE	-12.2969
▁cartoon	-12.297
▁seizure	-12.2973
▁ghosts	-12.2975
▁wrecked	-12.2976
▁manipulated	-12.2976
wrong	-12.2976
WTF	-12.2977
▁Mars	-12.298
▁sneaking	-12.298
playing	-12.2987
▁Mine	-12.2991
▁boards	-12.2991
4.	-12.2993
nThat	-12.2994
▁democratic	-12.2995
▁doom	-12.2996
▁funded	-12.2996
site	-12.2998
move	-12.3
Play	-12.3001
▁professionals	-12.3005
fest	-12.3006
rew	-12.3008
▁glue	-12.3016
▁elections	-12.3016
▁diploma	-12.3018
roll	-12.3018
▁Grandma	-12.3021
▁bestfriend	-12.3021
▁brat	-12.3022
Fi	-12.3023
▁Instagram	-12.3024
▁giggling	-12.3024
▁cherry	-12.3024
▁leash	-12.3024
▁reproduce	-12.3024
▁evolutionary	-12.3025
▁imagining	-12.3025
▁disrupt	-12.3025
▁Knight	-12.3025
▁fork	-12.3026
▁Similarly	-12.3027
▁Baron	-12.3027
elda	-12.3028
▁dent	-12.3029
▁enthusiastic	-12.303
▁immigrants	-12.3035
▁switches	-12.3035
▁Couple	-12.3036
usion	-12.3036
▁flooded	-12.3037
▁BAM	-12.3037
▁frames	-12.3039
▁constitutional	-12.304
▁retired	-12.304
press	-12.3041
▁leaking	-12.3041
▁carrier	-12.3045
▁vendor	-12.3046
▁Short	-12.3048
▁rumor	-12.3048
ku	-12.3049
Great	-12.3052
crazy	-12.3052
ius	-12.3053
▁juices	-12.3053
gger	-12.3055
rim	-12.3056
gun	-12.3058
▁tipsy	-12.3062
rum	-12.3065
▁myth	-12.3066
ended	-12.3067
""",	-12.3072
talking	-12.3076
▁18.	-12.3076
▁surround	-12.3078
▁embrace	-12.3086
rop	-12.3091
ground	-12.3099
▁Cersei	-12.3099
▁Colorado	-12.3099
▁SHOULD	-12.3099
▁Seattle	-12.3099
▁likelihood	-12.3099
▁shoving	-12.3099
▁courtesy	-12.3099
▁Francisco	-12.3099
▁rubbed	-12.31
▁depressive	-12.31
▁monday	-12.31
▁documentary	-12.31
▁HIM	-12.31
▁spill	-12.31
wash	-12.3101
▁considerably	-12.3101
▁hinder	-12.3102
CC	-12.3103
▁Alice	-12.3103
▁mag	-12.3103
▁geared	-12.3103
▁philosophical	-12.3104
▁Jaime	-12.3104
az	-12.3106
▁Sc	-12.3106
Note	-12.3107
▁Blade	-12.3107
▁Twitch	-12.3107
Sh	-12.3107
▁irony	-12.3109
▁Sally	-12.3113
▁lowered	-12.3113
▁socialize	-12.3114
▁Plat	-12.3117
sign	-12.3117
▁fatal	-12.3119
▁abs	-12.3125
▁Mormon	-12.3125
48	-12.3126
profit	-12.3126
stream	-12.3127
everything	-12.3127
▁stretched	-12.3128
▁sync	-12.3129
▁hipster	-12.3133
anti	-12.3136
▁displayed	-12.3139
block	-12.3139
▁runner	-12.3144
inger	-12.3148
▁rug	-12.3149
cle	-12.315
▁sci	-12.3155
does	-12.3156
▁vaginal	-12.3156
izz	-12.3157
▁exhaust	-12.3158
▁discourage	-12.3159
little	-12.3161
UT	-12.3162
▁rum	-12.3162
▁suppress	-12.3169
▁texture	-12.3173
▁IRA	-12.3174
▁mysterious	-12.3175
▁appreciation	-12.3175
▁envelope	-12.3175
▁intimidating	-12.3175
▁sneeze	-12.3175
▁unbearable	-12.3175
▁sushi	-12.3175
▁reckless	-12.3175
▁tragic	-12.3175
▁uncertain	-12.3175
▁import	-12.3176
▁remainder	-12.3176
▁6-7	-12.3178
▁viruses	-12.3178
▁ghetto	-12.3179
▁Specifically	-12.3179
▁friendzone	-12.3183
bra	-12.3183
▁Food	-12.3184
▁improvements	-12.3184
▁2/3	-12.3186
▁incoming	-12.3188
▁Current	-12.3189
▁cited	-12.3189
mage	-12.3192
▁Less	-12.3194
▁doorway	-12.3195
▁borrowed	-12.3195
▁coughing	-12.3196
▁noted	-12.3197
▁kidney	-12.3202
tract	-12.3204
weird	-12.3204
▁leagues	-12.3205
▁inspiration	-12.3205
someone	-12.3206
▁pumping	-12.3208
▁FO	-12.3209
▁explanations	-12.321
Will	-12.3211
▁blacks	-12.3212
▁fu	-12.3213
▁pasta	-12.3215
lk	-12.3218
▁Ju	-12.3219
▁ensues	-12.3223
▁layers	-12.3224
▁writers	-12.3225
ata	-12.3229
▁slowing	-12.3231
▁retire	-12.3235
▁PO	-12.3235
▁shrink	-12.3239
half	-12.3239
YOU	-12.3244
▁declare	-12.3249
▁lick	-12.3249
▁shocking	-12.325
hoo	-12.3251
▁gigantic	-12.3251
▁hypothesis	-12.3251
▁leather	-12.3251
▁participating	-12.3251
▁Richard	-12.3251
▁semen	-12.3252
▁initiates	-12.3254
rah	-12.3255
▁toxicity	-12.3255
▁dreamed	-12.3257
▁meanwhile	-12.3257
▁MIL	-12.3258
▁sealed	-12.326
▁cater	-12.3261
▁SL	-12.3262
▁Ste	-12.3263
ama	-12.3263
▁cube	-12.3268
ua	-12.3272
▁distinguish	-12.3272
▁temperatures	-12.3275
▁variation	-12.3276
▁rapist	-12.3276
issue	-12.3282
Seriously	-12.3282
▁Arab	-12.3284
Holy	-12.3285
pper	-12.3289
hol	-12.329
▁Ser	-12.329
▁1-	-12.3292
Old	-12.3294
legal	-12.3294
ET	-12.3297
▁Dell	-12.3298
▁danced	-12.33
▁paired	-12.3303
heat	-12.3303
deemed	-12.3305
▁Sub	-12.3306
took	-12.3309
▁peeing	-12.3313
▁imbalance	-12.3313
▁pose	-12.3313
▁hrs	-12.3313
37	-12.3314
▁Couldn	-12.3317
▁Walk	-12.3319
▁Class	-12.3323
.)",	-12.3324
▁130	-12.3326
▁cinema	-12.3328
▁Starbucks	-12.3328
▁misunderstood	-12.3328
▁technician	-12.3328
▁whipped	-12.3329
▁conflicts	-12.333
▁abruptly	-12.333
ALL	-12.333
▁squirrel	-12.3331
▁colored	-12.3332
▁feminine	-12.3334
▁haunted	-12.3334
▁corpse	-12.3335
▁exceed	-12.3337
lip	-12.3344
▁repost	-12.3347
▁cent	-12.3349
▁je	-12.3352
▁17,	-12.3354
▁craving	-12.3354
rch	-12.3354
▁Along	-12.3355
▁haircut	-12.3357
click	-12.3358
EST	-12.336
RT	-12.336
▁bullets	-12.3362
Saw	-12.3364
▁modes	-12.3364
▁politically	-12.3365
tho	-12.3368
▁experimenting	-12.3369
ino	-12.337
▁stations	-12.3371
▁complications	-12.3374
▁AR	-12.3378
▁clouds	-12.3384
▁taunt	-12.3385
▁labels	-12.3389
▁farmers	-12.3389
▁awoke	-12.3391
Dis	-12.3391
▁floors	-12.3391
▁PRO	-12.3401
▁specifics	-12.3403
▁artificial	-12.3405
▁hygiene	-12.3406
▁fragile	-12.3406
▁secular	-12.3406
▁strive	-12.3406
▁foul	-12.3406
▁pressuring	-12.3406
umble	-12.341
AA	-12.3411
▁restraining	-12.3411
▁terrorists	-12.3413
▁structures	-12.3413
▁smurfs	-12.3414
▁draws	-12.3414
ening	-12.3416
▁reserve	-12.3416
▁nest	-12.3416
▁demonstrate	-12.3416
▁shoots	-12.3419
▁discouraged	-12.3422
▁linear	-12.3423
words	-12.3424
lessness	-12.3426
▁generated	-12.3431
▁Ran	-12.3432
▁dire	-12.3433
▁cloth	-12.3433
▁AL	-12.3435
▁perspectives	-12.3435
▁accountable	-12.3436
Lost	-12.3437
▁specialist	-12.344
▁slaves	-12.3441
▁stacked	-12.3441
lee	-12.3442
▁shuts	-12.3443
atory	-12.3446
pr	-12.3448
▁OC	-12.3449
gal	-12.3449
▁Pri	-12.345
cra	-12.3453
▁raining	-12.3454
▁drum	-12.3454
▁jackass	-12.3459
trying	-12.3461
▁athletes	-12.3468
▁educate	-12.3468
▁advertise	-12.347
▁farmer	-12.3471
▁HIS	-12.348
▁cl	-12.3481
▁march	-12.3481
▁spontaneous	-12.3483
▁believer	-12.3483
▁inconsiderate	-12.3484
▁manipulation	-12.3484
▁prejudice	-12.3484
▁wiping	-12.3484
▁traumatic	-12.3484
▁flashlight	-12.3485
▁occurring	-12.3485
▁passport	-12.3485
▁Prior	-12.3485
▁fuss	-12.3486
▁SOME	-12.3486
▁reign	-12.3487
▁cho	-12.3488
▁GOOD	-12.3489
▁punches	-12.3489
rp	-12.349
▁siege	-12.3492
ched	-12.3494
▁exhausting	-12.3497
▁BTW	-12.3497
▁Type	-12.3497
▁ethics	-12.3499
▁Six	-12.3507
▁strained	-12.3508
EL	-12.3511
sister	-12.3515
Something	-12.3516
▁750	-12.3517
bol	-12.3521
special	-12.3524
dont	-12.3525
their	-12.3525
round	-12.3526
▁smokers	-12.3527
▁affordable	-12.3527
▁intro	-12.3531
ima	-12.3532
depressants	-12.3533
lum	-12.3534
▁overhead	-12.3535
stay	-12.3536
▁preach	-12.3541
▁greet	-12.3541
▁substances	-12.3543
▁airline	-12.3544
▁MP	-12.3548
▁rifles	-12.3551
▁mixing	-12.3554
▁sock	-12.3554
▁assert	-12.3557
▁cal	-12.3557
▁devs	-12.3557
▁PD	-12.3558
▁inherent	-12.3559
▁fabric	-12.356
drop	-12.3561
▁Came	-12.3561
▁arent	-12.3562
▁chamber	-12.3563
▁facilities	-12.3563
▁puberty	-12.3563
▁aroused	-12.3563
▁radius	-12.3563
▁taboo	-12.3563
▁hesitation	-12.3563
▁REAL	-12.3563
▁filing	-12.3564
▁flower	-12.3565
▁photography	-12.3566
▁Warrior	-12.3567
▁HDMI	-12.3567
▁complexity	-12.3567
▁Graves	-12.3569
▁blessing	-12.357
tier	-12.3571
▁bore	-12.3573
▁coolest	-12.3577
▁DS	-12.3577
▁lens	-12.3577
▁Text	-12.3577
uestion	-12.3578
cies	-12.3579
ifying	-12.3582
Think	-12.3582
bal	-12.3585
▁intentional	-12.3587
/1	-12.3589
ace	-12.3592
▁illusion	-12.3592
▁hacking	-12.3592
▁proves	-12.3593
IR	-12.3593
GHz	-12.3594
Source	-12.3594
speed	-12.3594
▁98	-12.3595
▁draining	-12.3596
ria	-12.3597
GA	-12.3604
▁Ph	-12.3606
nHer	-12.3607
damn	-12.3609
ense	-12.3615
▁simpler	-12.362
rape	-12.3621
sided	-12.3621
▁positively	-12.3623
▁perks	-12.3626
ura	-12.3629
▁Dec	-12.3629
▁slid	-12.363
eh	-12.3632
▁ankles	-12.3633
▁writes	-12.3638
▁cafeteria	-12.3642
▁concussion	-12.3642
▁distraught	-12.3642
▁AoE	-12.3642
▁HIV	-12.3642
▁shred	-12.3643
▁AFK	-12.3643
▁Chance	-12.3643
▁bikes	-12.3646
olo	-12.3648
▁skate	-12.3649
▁inconvenience	-12.365
▁2005	-12.3652
▁constructed	-12.3653
▁regional	-12.3654
maker	-12.3656
▁bailed	-12.3657
▁horde	-12.3659
▁Father	-12.366
▁[20	-12.3661
▁Living	-12.3661
▁Comp	-12.3662
oli	-12.3662
personal	-12.3663
▁blackout	-12.3663
▁spa	-12.3663
▁THERE	-12.3663
▁shakes	-12.3664
▁faded	-12.3668
▁SF	-12.3668
▁goodnight	-12.3669
▁Tra	-12.367
▁readers	-12.367
feeling	-12.3671
▁revolve	-12.3673
ella	-12.3673
▁rob	-12.3674
▁weighing	-12.3675
ban	-12.3678
▁owning	-12.368
▁140	-12.3681
▁shat	-12.3682
Working	-12.3682
▁Skip	-12.3682
/2	-12.3685
script	-12.3688
▁posters	-12.3692
▁Ya	-12.3693
▁Paris	-12.3698
▁apples	-12.3699
▁respecting	-12.3702
▁fruits	-12.3703
▁outcomes	-12.3704
▁contradict	-12.3704
ents	-12.3707
aged	-12.3712
▁teamwork	-12.3716
known	-12.3716
▁subsequent	-12.3718
▁institutions	-12.372
▁maid	-12.3721
▁Brazil	-12.3722
▁Ryze	-12.3722
▁preparation	-12.3722
▁reassurance	-12.3722
▁societal	-12.3722
▁choking	-12.3722
▁annoyance	-12.3723
▁ethical	-12.3723
▁illustrate	-12.3723
▁premade	-12.3724
▁kilo	-12.3724
▁derp	-12.3726
▁sway	-12.3727
▁reluctantly	-12.3729
▁Cry	-12.3731
▁expired	-12.3733
▁demons	-12.3734
▁Decide	-12.3736
correct	-12.3738
▁YES	-12.3746
▁sixth	-12.3747
present	-12.3754
money	-12.3756
High	-12.3756
▁outdoors	-12.3757
▁tenant	-12.3757
-30	-12.3758
▁mor	-12.3762
hell	-12.3764
▁Effect	-12.3766
▁creeping	-12.3768
▁healer	-12.3768
PE	-12.3768
▁refill	-12.3769
▁disappears	-12.377
▁bid	-12.3774
▁Pass	-12.3775
▁rail	-12.3775
▁shaken	-12.378
▁PL	-12.378
▁newest	-12.3782
▁Nu	-12.3783
nThere	-12.3791
▁utilize	-12.3791
▁Eastern	-12.3795
▁greed	-12.3799
▁sip	-12.3799
▁motions	-12.3801
▁dizzy	-12.3803
▁ecstatic	-12.3803
▁wikipedia	-12.3803
▁International	-12.3803
▁throne	-12.3803
▁copied	-12.3804
▁eh	-12.3805
▁establishment	-12.3805
▁detrimental	-12.3806
▁Meaning	-12.3807
▁Guild	-12.3807
▁controversial	-12.3808
▁dresses	-12.3811
▁logging	-12.3811
zed	-12.3812
▁inaccurate	-12.3812
▁fastest	-12.3814
▁Depression	-12.3814
cious	-12.3815
▁edited	-12.3816
▁adjusted	-12.3828
▁socket	-12.3829
▁Follow	-12.383
aaa	-12.3831
▁fuckers	-12.3832
▁banged	-12.3834
crack	-12.3835
▁turtle	-12.3835
Another	-12.3837
OMG	-12.3838
nFor	-12.3838
▁boob	-12.3838
▁legend	-12.3838
▁handles	-12.3842
parents	-12.3843
▁asap	-12.3843
always	-12.3844
▁Ri	-12.3846
FF	-12.3846
▁SM	-12.385
▁fortune	-12.3851
▁arc	-12.3852
paid	-12.3856
▁rabbit	-12.3856
150	-12.3856
-11	-12.386
▁flashing	-12.3866
Too	-12.3867
▁downside	-12.387
pad	-12.3873
""","	-12.3875
isation	-12.3876
ently	-12.3877
▁codes	-12.3877
▁malicious	-12.388
aging	-12.3883
▁accommodate	-12.3884
▁angrily	-12.3884
▁martial	-12.3884
▁proposing	-12.3884
▁quantity	-12.3884
▁innovation	-12.3884
▁uninterested	-12.3884
dig	-12.3885
▁gray	-12.3886
▁masteries	-12.3886
▁conventional	-12.3888
▁stake	-12.3888
▁Nidalee	-12.3889
force	-12.3889
burn	-12.3891
▁Heart	-12.3891
▁Chi	-12.3892
▁Weird	-12.3896
▁MC	-12.3896
▁disprove	-12.3896
rian	-12.3897
▁addresses	-12.3898
▁boiling	-12.39
▁wider	-12.3903
▁republicans	-12.3903
▁friendzoned	-12.3906
▁Sir	-12.3907
▁Funny	-12.3908
▁Cooler	-12.3908
ene	-12.3908
▁polar	-12.3909
▁trials	-12.3913
▁bears	-12.3916
▁errands	-12.3917
▁Book	-12.3917
Her	-12.3918
random	-12.3918
▁stripper	-12.392
▁retain	-12.392
Help	-12.392
▁neo	-12.3921
Link	-12.3923
▁darker	-12.3924
▁asthma	-12.3925
dra	-12.3928
▁eastern	-12.3933
tric	-12.3936
ache	-12.3938
▁Kid	-12.394
ories	-12.3941
plan	-12.3942
▁qui	-12.3949
▁despise	-12.395
▁cease	-12.395
▁va	-12.3951
walk	-12.3956
▁CL	-12.3956
▁styles	-12.3958
Didn	-12.3959
▁offline	-12.3959
cher	-12.3966
▁advisor	-12.3966
▁allergies	-12.3966
▁centuries	-12.3966
▁fascinating	-12.3966
▁hybrid	-12.3966
▁nexus	-12.3966
▁Standard	-12.3966
▁Sansa	-12.3966
▁DOES	-12.3966
▁modified	-12.3966
▁assembly	-12.3967
ville	-12.3967
▁Kong	-12.3968
mean	-12.3968
▁strengths	-12.3969
▁suitable	-12.397
▁hairy	-12.397
▁gist	-12.3971
itation	-12.3971
ski	-12.3971
▁donations	-12.3972
NG	-12.3973
▁inconsistent	-12.3976
▁Tank	-12.3977
▁repercussions	-12.3977
▁wandered	-12.3978
▁Stark	-12.3979
▁drifting	-12.3981
lost	-12.3982
ION	-12.3997
▁bites	-12.3997
▁judges	-12.3998
▁punishing	-12.3998
Nothing	-12.4002
▁Yep	-12.4004
▁cramps	-12.4008
▁hormone	-12.4008
▁stretching	-12.4009
▁HERE	-12.4009
▁pe	-12.4013
ception	-12.4015
▁officials	-12.4019
plus	-12.402
▁(8	-12.4021
▁uncles	-12.4021
ured	-12.4024
CU	-12.4025
▁38	-12.4027
Th	-12.4033
▁Vol	-12.4034
▁towns	-12.4037
▁ro	-12.4038
jack	-12.4038
▁distress	-12.404
▁quits	-12.404
Ho	-12.4046
▁abstract	-12.4047
▁creativity	-12.4049
▁hypocrite	-12.4049
▁navigate	-12.4049
▁plausible	-12.4049
▁expelled	-12.4049
▁sloppy	-12.4049
▁Northern	-12.4049
▁breach	-12.4049
▁turd	-12.4049
▁banning	-12.405
▁filthy	-12.405
▁sideways	-12.4051
pac	-12.4054
▁toss	-12.4054
▁Stat	-12.4055
▁clan	-12.4059
▁viewer	-12.406
grade	-12.4061
▁pong	-12.4061
▁electrons	-12.4063
▁SK	-12.4064
▁executed	-12.4067
42	-12.4069
▁considerable	-12.407
▁USD	-12.4072
▁headline	-12.4073
matic	-12.4074
CA	-12.4076
▁encourages	-12.4076
ality	-12.4083
▁canceled	-12.4084
grad	-12.4084
child	-12.4084
▁veteran	-12.4086
▁lawsuit	-12.4087
dding	-12.4088
Really	-12.4089
▁addressing	-12.4089
▁expose	-12.4092
▁wired	-12.4092
NC	-12.4093
▁arrow	-12.4102
oid	-12.4107
Dear	-12.4113
▁toast	-12.4116
ulate	-12.412
NE	-12.4122
▁Se	-12.4124
▁Jungle	-12.4127
▁commander	-12.4129
▁steer	-12.4129
▁Ents	-12.4131
▁digest	-12.4132
▁AGAIN	-12.4132
▁Detroit	-12.4132
▁netflix	-12.4132
▁pretentious	-12.4132
▁sequel	-12.4132
▁ritual	-12.4132
▁paralysis	-12.4132
▁terran	-12.4132
▁loosing	-12.4132
▁Warcraft	-12.4132
▁sphere	-12.4132
▁loyalty	-12.4133
▁convicted	-12.4135
tag	-12.4135
▁winrate	-12.4136
▁debts	-12.4138
▁agony	-12.4139
holder	-12.4139
▁installation	-12.414
▁settlement	-12.4142
▁drifted	-12.4143
▁typos	-12.4146
▁Strike	-12.4146
▁THEM	-12.4146
▁Ugh	-12.415
Ah	-12.4152
mma	-12.4154
▁dictate	-12.4155
mode	-12.4156
▁solving	-12.4159
▁homosexuals	-12.4163
▁aimed	-12.4164
▁regime	-12.4165
▁te	-12.4168
super	-12.417
▁curtain	-12.4171
▁deadline	-12.4177
▁oc	-12.4179
things	-12.4182
cis	-12.4187
▁swears	-12.4187
Gf	-12.419
▁(2)	-12.419
NY	-12.4192
CO	-12.4192
▁condemn	-12.4194
▁civilians	-12.4195
▁sexting	-12.4195
▁FBI	-12.4199
came	-12.4199
▁artistic	-12.42
DO	-12.4201
direct	-12.4209
▁lil	-12.4214
▁bleach	-12.4215
▁Radeon	-12.4216
▁applicable	-12.4216
▁arriving	-12.4216
▁crucible	-12.4216
▁galaxy	-12.4216
▁nauseous	-12.4216
▁sunglasses	-12.4216
▁Diablo	-12.4216
acy	-12.4216
▁Jenny	-12.4216
▁Sweden	-12.4216
▁liability	-12.4216
▁northern	-12.4216
▁cursing	-12.4216
▁biking	-12.4217
▁profound	-12.4217
▁tipped	-12.4218
▁jog	-12.4218
▁kinky	-12.4219
▁Doom	-12.4219
▁celebrity	-12.422
▁duel	-12.4229
▁bruises	-12.4231
▁Definitely	-12.4231
TO	-12.4231
▁inhibit	-12.4231
▁raping	-12.4233
grown	-12.4235
▁Stupid	-12.4235
▁bind	-12.4236
▁bastards	-12.4239
▁progressing	-12.4245
▁induced	-12.4245
▁volunteering	-12.4245
▁tick	-12.4248
▁sleeps	-12.4249
▁equate	-12.4251
▁vomited	-12.4251
▁Op	-12.4251
▁expanding	-12.4252
apparently	-12.4253
despite	-12.4253
▁crystal	-12.4257
dge	-12.4257
▁corrected	-12.4257
▁Fair	-12.4257
miss	-12.4258
▁feminists	-12.4262
▁huh	-12.4262
▁CR	-12.4264
lit	-12.4267
▁forgiving	-12.4271
▁Ge	-12.4274
Na	-12.4274
bin	-12.4278
hrs	-12.4278
▁scrap	-12.4279
▁chilled	-12.4279
▁Test	-12.428
rain	-12.4282
quit	-12.4283
▁staple	-12.4286
▁affairs	-12.4286
eal	-12.4287
▁dawn	-12.4292
▁preserve	-12.4294
▁compassion	-12.43
▁assess	-12.43
▁companion	-12.4301
▁Moral	-12.4301
▁Alliance	-12.4301
▁PEOPLE	-12.4301
▁algorithm	-12.4301
▁cereal	-12.4301
▁fantasize	-12.4301
▁horrendous	-12.4301
▁insanity	-12.4301
▁pulse	-12.4301
▁signature	-12.4301
▁spectacular	-12.4301
▁supreme	-12.4301
▁AOE	-12.4301
▁friction	-12.4301
▁sensible	-12.4301
▁stale	-12.4301
tch	-12.4301
▁unlucky	-12.4301
▁deployment	-12.4302
▁boredom	-12.4302
▁videogames	-12.4302
▁supermarket	-12.4302
▁indirectly	-12.4303
▁molested	-12.4303
▁hostel	-12.4304
▁precisely	-12.4305
▁underwater	-12.4305
▁delusional	-12.4306
▁cynical	-12.4306
▁lingering	-12.4307
▁Jay	-12.4308
▁Change	-12.4309
▁gestures	-12.4309
▁historically	-12.431
▁bass	-12.431
▁BAD	-12.4313
▁Dick	-12.4314
▁ants	-12.4315
▁fr	-12.4315
▁whack	-12.4319
▁Pop	-12.432
▁newbie	-12.4321
▁mocking	-12.4323
▁filming	-12.4325
▁thereof	-12.4325
▁tan	-12.4325
▁messes	-12.4325
▁blindly	-12.4327
▁waved	-12.433
▁represented	-12.433
▁offices	-12.433
▁et	-12.4331
▁Va	-12.4331
Ran	-12.4332
▁reduces	-12.4334
▁Cons	-12.4336
Pretty	-12.4338
▁reversed	-12.4341
▁contribution	-12.4343
remember	-12.4344
those	-12.4344
TV	-12.4347
▁wan	-12.4349
▁dodged	-12.435
▁outbreak	-12.4352
▁pl	-12.4353
▁shin	-12.4358
osh	-12.4359
oooo	-12.4359
Love	-12.436
▁gays	-12.4362
▁mount	-12.4363
▁listing	-12.4364
▁chunks	-12.4367
08	-12.4368
ock	-12.4369
rine	-12.4371
▁para	-12.4372
▁Set	-12.4374
▁tutor	-12.4375
nAny	-12.4376
▁carb	-12.4377
▁portray	-12.4378
▁reminding	-12.438
ERS	-12.4381
▁sympathetic	-12.4386
▁warehouse	-12.4386
▁telephone	-12.4386
▁chinese	-12.4386
▁Virginia	-12.4386
▁surroundings	-12.4386
▁overdose	-12.4386
▁cement	-12.4387
▁uncertainty	-12.4387
▁smite	-12.4387
▁unpopular	-12.4387
▁spitting	-12.4387
▁dumpster	-12.4388
▁HAD	-12.4388
▁EUW	-12.4388
▁conviction	-12.4388
▁tipping	-12.4388
▁clit	-12.4388
▁armour	-12.4389
▁happend	-12.439
▁unclear	-12.4391
▁rhythm	-12.4392
▁4-6	-12.4392
▁Draven	-12.4393
▁commentary	-12.4393
deal	-12.4393
▁feminism	-12.4396
▁chuck	-12.4396
▁distributed	-12.4397
▁Raid	-12.44
...).	-12.4401
▁gifted	-12.4402
▁attach	-12.4405
▁crawled	-12.4405
▁absorbed	-12.4409
▁(1)	-12.4409
UN	-12.4409
▁Cap	-12.4411
▁activated	-12.4412
▁guidelines	-12.4413
▁shards	-12.4413
▁engines	-12.4414
▁sprayed	-12.4415
teen	-12.4415
ement	-12.4418
▁ob	-12.4419
05	-12.4422
▁dresser	-12.4422
Jesus	-12.4425
woman	-12.4425
▁procedures	-12.4427
▁distraction	-12.443
.)"	-12.4433
▁sofa	-12.4435
▁weirdo	-12.4436
▁stacking	-12.4439
76	-12.444
▁RPG	-12.4442
pie	-12.4442
ome	-12.4443
▁scrape	-12.4443
▁Playing	-12.4443
ulation	-12.4461
▁scoop	-12.4464
cc	-12.4466
▁lucid	-12.4472
▁incompetent	-12.4472
▁maximize	-12.4472
▁tbh	-12.4472
▁jesus	-12.4472
▁steadily	-12.4472
▁Rengar	-12.4472
▁shelves	-12.4472
▁windshield	-12.4473
▁dedication	-12.4473
▁Martin	-12.4473
▁protoss	-12.4473
▁shaman	-12.4473
-9	-12.4474
▁smartphone	-12.4474
▁stepdad	-12.4474
▁eighth	-12.4475
▁sociopath	-12.4475
▁hungover	-12.4476
▁sandwiches	-12.4477
▁holder	-12.4477
logy	-12.4478
▁moderately	-12.4482
▁atoms	-12.4482
horn	-12.4484
▁regulated	-12.4486
▁salty	-12.4486
▁analyzing	-12.4489
▁bouncer	-12.4491
▁coils	-12.4492
▁distracting	-12.4493
UM	-12.4493
▁fingering	-12.4494
▁ditched	-12.4495
▁apologised	-12.4496
▁seated	-12.4497
▁veggies	-12.4498
▁bounced	-12.4499
abi	-12.4505
Bad	-12.4505
rap	-12.4508
▁paragraphs	-12.451
▁deter	-12.451
hop	-12.4511
food	-12.4512
▁Leave	-12.4512
Tell	-12.4513
▁corners	-12.4518
▁ancestors	-12.4518
▁limitations	-12.4519
▁programmer	-12.4521
hang	-12.4527
▁america	-12.4528
▁4.5	-12.4531
▁3000	-12.4532
▁16.	-12.4534
hh	-12.4536
Call	-12.4537
wait	-12.4538
▁caster	-12.4544
▁chuckle	-12.4545
▁subscribe	-12.4547
nHow	-12.455
▁thrill	-12.455
▁hopeful	-12.4551
▁sweep	-12.4554
▁Broke	-12.4555
▁Sky	-12.4557
▁defect	-12.4558
▁Empire	-12.4559
▁Storage	-12.4559
▁devastating	-12.4559
▁druid	-12.4559
▁illogical	-12.4559
▁industries	-12.4559
▁irritating	-12.4559
▁magnitude	-12.4559
▁uncontrollably	-12.4559
▁widow	-12.4559
▁capabilities	-12.4559
▁refrain	-12.4559
▁gamble	-12.4559
doing	-12.456
▁consistency	-12.456
▁dodging	-12.456
▁patio	-12.456
▁partake	-12.456
▁heating	-12.456
▁authorities	-12.456
▁Shaco	-12.456
▁900	-12.456
▁probable	-12.4561
▁phrases	-12.4561
▁underground	-12.4562
▁Counter	-12.4562
▁ke	-12.4564
▁budge	-12.4565
▁deployed	-12.4565
▁mentor	-12.4566
▁brace	-12.4566
▁rival	-12.4568
▁Reason	-12.4569
▁intellectually	-12.457
▁defining	-12.457
▁Face	-12.4572
ATE	-12.4573
▁dads	-12.4575
▁rationally	-12.4578
▁Bran	-12.4579
▁understandably	-12.4579
safe	-12.4579
▁traps	-12.458
▁keg	-12.4582
▁storyline	-12.4582
ote	-12.4583
▁reciprocated	-12.4584
▁issued	-12.4584
▁TB	-12.4585
▁googled	-12.4587
▁GG	-12.4597
erry	-12.4597
Could	-12.4599
Very	-12.4604
yet	-12.4605
▁drone	-12.4606
▁Wa	-12.4608
▁Du	-12.4609
▁seal	-12.4614
▁Cla	-12.4615
▁banking	-12.4615
▁sweater	-12.4616
▁mal	-12.4616
skill	-12.4618
▁conflicting	-12.4618
▁Carl	-12.4621
ona	-12.4622
▁jug	-12.4623
▁sexism	-12.4625
▁accusations	-12.4625
handed	-12.4626
▁lurk	-12.4627
▁str	-12.4631
LA	-12.4637
700	-12.4642
▁analog	-12.4643
▁Sona	-12.4646
▁desperation	-12.4647
▁dagger	-12.4647
▁Brad	-12.4647
▁threshold	-12.4647
▁pertain	-12.4647
▁rinse	-12.4647
▁poem	-12.4648
▁witty	-12.4648
▁documentation	-12.4649
▁photograph	-12.4649
▁Ven	-12.465
▁plateau	-12.465
▁Coast	-12.4653
door	-12.4658
▁cheeks	-12.4658
MM	-12.4659
▁COM	-12.466
▁chewing	-12.4664
smart	-12.4668
uation	-12.467
GG	-12.4671
ire	-12.4673
keeper	-12.4673
eth	-12.4673
▁WHO	-12.4674
▁knocks	-12.4674
▁resting	-12.4675
range	-12.4677
▁comeback	-12.4681
▁$25	-12.4683
▁colon	-12.4685
▁Crazy	-12.4687
▁crop	-12.4688
Damn	-12.4689
▁Male	-12.4689
▁sincere	-12.4689
damage	-12.469
Started	-12.4692
apped	-12.4695
▁Ford	-12.4696
imp	-12.4697
▁DR	-12.47
81	-12.4701
▁flake	-12.4702
▁qua	-12.4707
▁arse	-12.471
▁render	-12.4715
▁Mov	-12.4721
▁(21	-12.4724
▁disable	-12.4725
ugh	-12.4727
Ne	-12.4728
etic	-12.4728
▁collections	-12.473
▁definite	-12.4732
saw	-12.4733
▁adventurous	-12.4736
▁bouncing	-12.4736
▁breeze	-12.4736
▁dominance	-12.4736
▁Janna	-12.4736
▁BIG	-12.4737
▁merge	-12.4737
▁PIV	-12.4737
▁Winter	-12.4739
▁handjob	-12.4739
▁urgent	-12.4741
▁Frankly	-12.4742
▁Whereas	-12.4742
War	-12.4743
▁tags	-12.4744
▁theoretically	-12.4744
▁potent	-12.4745
▁Engineering	-12.4745
▁practiced	-12.4748
▁2004	-12.4749
▁discounts	-12.4749
▁fulfilled	-12.475
▁devoted	-12.475
▁freeway	-12.4751
▁castle	-12.4751
▁fires	-12.4752
Big	-12.4753
▁Company	-12.4754
▁pursued	-12.4755
▁interpreted	-12.4756
▁dumps	-12.476
hhh	-12.4761
sky	-12.4761
▁spike	-12.4769
▁Players	-12.4769
mic	-12.477
zy	-12.477
▁blowjobs	-12.4771
reach	-12.4772
▁mice	-12.4775
▁remark	-12.4777
problem	-12.4777
▁ganked	-12.478
▁Service	-12.4785
sil	-12.4785
▁claw	-12.4786
▁lad	-12.4787
▁den	-12.4788
▁startup	-12.4793
paying	-12.4794
▁hitch	-12.4797
▁Mal	-12.48
ala	-12.4802
IV	-12.4805
1.5	-12.4808
▁scholarships	-12.4808
▁summon	-12.4812
▁manifest	-12.4813
▁cite	-12.4815
,000,000	-12.4819
izer	-12.4824
▁TWO	-12.4825
▁amusement	-12.4825
▁enthusiasm	-12.4825
▁protocol	-12.4825
TREME	-12.4825
▁quantum	-12.4825
▁Louis	-12.4825
▁slamming	-12.4825
▁meditation	-12.4825
▁revert	-12.4825
▁necklace	-12.4825
▁possessive	-12.4825
▁fireworks	-12.4826
▁unsafe	-12.4826
▁scent	-12.4828
▁CDR	-12.4828
▁Mainly	-12.4829
player	-12.483
▁dryer	-12.483
▁Regi	-12.4831
▁overpowered	-12.4831
▁partition	-12.4832
▁ribs	-12.4833
nWell	-12.4833
rule	-12.4834
kick	-12.4834
▁faggot	-12.4835
▁incorrectly	-12.4836
▁centered	-12.4837
-7	-12.4838
har	-12.4839
gas	-12.484
▁Ghost	-12.4841
mination	-12.4841
▁bypass	-12.4843
▁TOO	-12.4844
▁Awesome	-12.4844
▁stresses	-12.4847
▁routinely	-12.4852
▁2001	-12.4852
Use	-12.4857
ou	-12.4859
▁brushing	-12.4863
▁emo	-12.4863
▁gel	-12.4864
cup	-12.4864
▁blankets	-12.4866
Everything	-12.4867
▁flare	-12.4868
ook	-12.487
▁snaps	-12.4873
▁Bot	-12.4873
▁tantrum	-12.4876
lated	-12.4876
▁glove	-12.488
▁receives	-12.4883
▁240	-12.4892
▁plea	-12.4892
▁sm	-12.4894
▁cone	-12.4894
▁Late	-12.4896
feed	-12.4897
▁violate	-12.4899
▁maker	-12.49
av	-12.4902
▁stemm	-12.4909
org	-12.491
▁outfit	-12.4911
▁outdoor	-12.4913
▁Hawaii	-12.4914
▁1800	-12.4915
▁[23	-12.4915
▁bathtub	-12.4915
▁glimpse	-12.4915
▁infatuated	-12.4915
▁repetitive	-12.4915
▁arrival	-12.4915
▁density	-12.4915
▁merchant	-12.4915
▁grunt	-12.4915
▁tolerant	-12.4915
▁jelly	-12.4915
▁ungrateful	-12.4915
▁Lucy	-12.4915
▁rift	-12.4915
▁humour	-12.4915
▁nutrients	-12.4915
▁Duty	-12.4915
▁fuzzy	-12.4916
▁notorious	-12.4917
▁Te	-12.4918
▁Bond	-12.4918
▁titan	-12.4919
▁roast	-12.4919
▁rampant	-12.492
fine	-12.4922
▁outrageous	-12.4922
▁intensive	-12.4923
▁drowning	-12.4927
Wo	-12.4927
▁markets	-12.4929
▁willingly	-12.493
▁Walking	-12.493
▁fallout	-12.493
Thought	-12.4932
▁Fo	-12.4932
▁wires	-12.4932
▁preferably	-12.4934
▁surfing	-12.4936
▁addicts	-12.4937
▁17.	-12.4938
pop	-12.4938
4)	-12.4939
▁advancement	-12.494
anger	-12.4944
▁deadlift	-12.4944
▁parks	-12.4947
▁willpower	-12.4949
67	-12.4952
▁Grand	-12.4955
NYAN	-12.4958
Little	-12.4958
▁$800	-12.4959
▁produces	-12.4961
▁rows	-12.4961
▁Pan	-12.4961
RS	-12.4964
▁dildo	-12.4967
ali	-12.4968
▁politician	-12.4968
▁particle	-12.4971
aught	-12.4971
▁Spen	-12.4972
PO	-12.4975
▁burgers	-12.4976
assed	-12.4977
▁$600	-12.4977
▁Wife	-12.4981
cop	-12.4984
▁lounge	-12.4989
save	-12.499
▁mattered	-12.4994
cute	-12.4996
ept	-12.4998
▁eff	-12.5
▁examine	-12.5001
▁adequate	-12.5002
▁sketch	-12.5003
▁Arm	-12.5005
▁Georgia	-12.5006
▁bounties	-12.5006
▁excruciating	-12.5006
▁exploration	-12.5006
▁surviving	-12.5006
▁Mountain	-12.5006
▁Formatting	-12.5006
▁bladder	-12.5006
▁SUV	-12.5006
▁conscience	-12.5006
could	-12.5006
▁lemon	-12.5006
▁autoattack	-12.5006
▁legacy	-12.5006
▁CPR	-12.5006
til	-12.5007
▁calculations	-12.5007
▁echo	-12.5007
▁Taco	-12.5008
▁strategic	-12.5009
▁boils	-12.5009
▁AFTER	-12.5009
▁psychopath	-12.501
▁subconsciously	-12.501
▁Ranked	-12.501
▁humiliated	-12.501
▁Civil	-12.5011
▁spun	-12.5012
▁alcoholism	-12.5014
▁scored	-12.5014
▁coward	-12.5016
▁invent	-12.5017
▁[22	-12.5018
▁certainty	-12.5019
▁visuals	-12.502
▁urban	-12.5021
▁internally	-12.5023
▁beloved	-12.5023
won	-12.5024
▁smug	-12.5026
▁Random	-12.5027
▁deem	-12.5027
▁Trans	-12.5028
▁NE	-12.5029
▁valued	-12.503
▁communications	-12.5032
▁Boss	-12.5036
▁intolerance	-12.5038
▁crafting	-12.5038
▁Bel	-12.504
rays	-12.5041
▁majors	-12.5041
▁award	-12.5042
ston	-12.5046
▁Ki	-12.5046
funny	-12.5049
onia	-12.505
confidence	-12.505
death	-12.505
▁researched	-12.505
▁upvoted	-12.5051
▁Ring	-12.5054
▁goodness	-12.5054
▁stalk	-12.5056
▁midst	-12.5057
▁Young	-12.5057
▁accomplishment	-12.5061
▁SI	-12.5067
▁neglect	-12.5076
▁agents	-12.5079
▁bark	-12.5079
▁enters	-12.5081
wire	-12.5082
▁Toward	-12.5083
▁inject	-12.5084
▁fi	-12.5085
▁abort	-12.5087
quest	-12.5091
▁Ver	-12.5091
cro	-12.5093
▁char	-12.5094
▁batch	-12.5095
▁Hello	-12.5097
▁Processor	-12.5098
excluding	-12.5098
▁Craigslist	-12.5098
▁EMT	-12.5098
▁execution	-12.5098
▁grammatical	-12.5098
▁janitor	-12.5098
▁mundane	-12.5098
▁yourselves	-12.5098
▁Curse	-12.5098
▁Nasus	-12.5098
▁architecture	-12.5098
▁widespread	-12.5098
▁Initially	-12.5098
▁roster	-12.5098
▁DOTA	-12.5098
▁redneck	-12.5098
▁moderation	-12.5099
▁acknowledging	-12.5099
▁straightforward	-12.5099
▁Likewise	-12.51
▁Unlike	-12.5103
▁PLEASE	-12.5103
▁Andrew	-12.5105
▁Everytime	-12.5107
eyed	-12.5109
mile	-12.5109
▁chief	-12.5111
▁feared	-12.5111
▁taxed	-12.5112
▁transactions	-12.5116
▁departments	-12.5117
▁reassured	-12.5119
much	-12.5121
ibility	-12.5121
▁jerks	-12.5122
▁indicated	-12.513
▁uploaded	-12.5131
▁symbols	-12.5131
▁magazines	-12.5132
ander	-12.5136
▁adjusting	-12.5137
▁xp	-12.5138
▁ge	-12.514
drunk	-12.5142
blade	-12.5143
another	-12.5144
?),	-12.5146
▁tubes	-12.5146
▁bricks	-12.5148
▁highlight	-12.515
sort	-12.5153
▁submission	-12.5154
▁instincts	-12.5155
chat	-12.5157
▁pots	-12.5159
tick	-12.5159
78	-12.5159
haha	-12.516
▁stunt	-12.5162
▁cartoons	-12.5165
FA	-12.5166
▁HO	-12.5167
dress	-12.5168
ister	-12.5172
inf	-12.5177
arm	-12.5177
▁tourist	-12.5183
▁Mega	-12.5184
▁horizon	-12.5189
▁Arizona	-12.519
▁VoG	-12.519
▁Westeros	-12.519
▁apologetic	-12.519
▁cosmetic	-12.519
▁dishwasher	-12.519
▁horrifying	-12.519
▁integrity	-12.519
▁tasty	-12.519
▁stumbling	-12.519
▁Bonus	-12.519
▁Urgot	-12.519
▁MLG	-12.519
▁backseat	-12.5191
▁tagged	-12.5191
▁supernatural	-12.5192
▁evident	-12.5192
▁superiority	-12.5192
His	-12.5193
▁NJ	-12.5194
▁Evan	-12.5196
▁nodded	-12.5196
▁sunk	-12.5196
▁effectiveness	-12.5197
▁:(","	-12.5198
▁treatments	-12.52
▁definitions	-12.5201
ggle	-12.5201
▁motives	-12.5201
▁wolves	-12.5201
▁NOPE	-12.5202
▁tracked	-12.5204
▁cocky	-12.5206
rg	-12.5207
/4	-12.5208
▁altered	-12.5209
▁hugely	-12.521
▁STOP	-12.5213
▁1600	-12.5217
▁rips	-12.5219
▁cursed	-12.522
code	-12.5221
▁rats	-12.5224
▁namely	-12.5227
▁wipes	-12.5229
▁wh	-12.5231
lation	-12.5233
religion	-12.5236
baby	-12.5238
▁Islamic	-12.524
▁twins	-12.5241
Put	-12.5242
▁fin	-12.5243
▁spirits	-12.5244
struct	-12.5245
PD	-12.5248
▁hooker	-12.5249
▁cycles	-12.5252
▁textbook	-12.5254
▁borders	-12.5256
▁compromised	-12.5257
▁drown	-12.5262
▁Brit	-12.5268
▁rationalize	-12.5269
▁shooter	-12.5272
▁chats	-12.5272
iling	-12.5275
▁norms	-12.5276
▁sleepy	-12.5277
▁donation	-12.5278
▁tha	-12.5281
dict	-12.5282
-22	-12.5283
▁starters	-12.5283
inc	-12.5283
▁remorse	-12.5283
▁Club	-12.5284
▁MUST	-12.5284
▁satellite	-12.5284
▁tragedy	-12.5284
▁unbiased	-12.5284
▁autistic	-12.5284
▁freelance	-12.5284
▁Atheon	-12.5284
▁GREAT	-12.5284
▁unbelievable	-12.5284
▁divine	-12.5284
▁capability	-12.5284
▁betrayal	-12.5285
▁fallacy	-12.5285
▁transferring	-12.5285
▁unintentionally	-12.5285
▁pork	-12.5285
▁15-20	-12.5286
▁fox	-12.5287
▁witnesses	-12.5287
▁statistically	-12.5288
Parents	-12.5289
▁[8]	-12.5289
▁sarcasm	-12.529
▁$80	-12.529
THE	-12.5295
▁brew	-12.5295
▁Music	-12.5296
▁Secret	-12.5297
▁disrespected	-12.5297
▁Different	-12.53
progressively	-12.53
▁slump	-12.5301
▁suspicions	-12.5303
▁aura	-12.5303
▁anus	-12.5305
▁hoodie	-12.5306
▁HAS	-12.5307
▁pug	-12.5307
▁vo	-12.5311
▁sw	-12.5312
roid	-12.5312
loc	-12.5313
quality	-12.5314
▁muted	-12.5316
▁zoned	-12.5316
▁Save	-12.5321
▁scratching	-12.5321
▁equals	-12.5322
IST	-12.5326
serious	-12.5326
▁crops	-12.5327
91	-12.5328
bang	-12.5332
▁5-	-12.5333
▁poll	-12.5336
short	-12.5336
ride	-12.5336
▁parental	-12.534
▁sleeve	-12.5343
▁grader	-12.5345
ef	-12.5347
▁updating	-12.5349
▁interviewed	-12.535
▁learnt	-12.5352
RP	-12.5355
played	-12.5361
▁appearing	-12.5362
▁manly	-12.5363
▁panels	-12.5364
ava	-12.5365
▁limp	-12.5366
▁hu	-12.5367
tical	-12.5367
▁conquer	-12.5369
▁transit	-12.537
Find	-12.537
cca	-12.5373
▁endure	-12.5374
▁Humans	-12.5375
▁subconscious	-12.5375
▁fuse	-12.5377
▁calculator	-12.5378
▁maneuver	-12.5378
▁Jersey	-12.5378
▁articulate	-12.5378
▁fifty	-12.5378
▁Emily	-12.5378
▁delicate	-12.5378
▁pedal	-12.5378
▁Battlefield	-12.5378
▁ALSO	-12.5378
▁uneducated	-12.5379
▁Euro	-12.5379
▁projectile	-12.538
▁receptionist	-12.538
▁Henry	-12.538
▁bawling	-12.5381
▁Summoner	-12.5381
▁Austin	-12.5382
▁Soviet	-12.5382
fast	-12.5383
▁Security	-12.5385
▁rockets	-12.5386
▁Person	-12.5386
▁candle	-12.5389
▁Jess	-12.5391
▁Min	-12.5392
▁summoners	-12.5395
DA	-12.5396
▁Jax	-12.5401
▁Poor	-12.5402
▁volunteered	-12.5402
▁hookups	-12.5405
▁ulti	-12.5405
▁amusing	-12.5405
?!?!	-12.5408
▁Cold	-12.541
▁decreased	-12.5414
lands	-12.5415
▁TR	-12.5417
▁whisper	-12.5418
▁assign	-12.5418
▁obligations	-12.5419
▁Inter	-12.542
official	-12.542
▁experiments	-12.5421
fri	-12.5425
▁ape	-12.5426
▁behaved	-12.5427
▁COD	-12.5427
bby	-12.5427
Pre	-12.5428
mainly	-12.5429
nHowever	-12.5435
▁token	-12.5435
▁rag	-12.5437
Told	-12.5437
zi	-12.5438
stress	-12.5438
▁170	-12.5439
▁DD	-12.5442
mes	-12.5444
▁Marine	-12.5445
92	-12.5449
max	-12.5452
learn	-12.5452
:"	-12.5455
▁Uncle	-12.5463
bitch	-12.5463
▁wit	-12.5466
▁offender	-12.5466
▁gates	-12.5467
▁precise	-12.5469
▁harming	-12.5469
▁babysit	-12.5472
▁Irelia	-12.5473
▁Terran	-12.5473
▁amazon	-12.5473
▁immigration	-12.5473
▁prominent	-12.5473
▁horrid	-12.5473
▁Gragas	-12.5473
▁vault	-12.5473
▁foremost	-12.5473
▁Jackson	-12.5474
▁Taric	-12.5474
▁stir	-12.5474
▁proposition	-12.5474
▁revelation	-12.5474
▁forearm	-12.5474
CAUSE	-12.5475
▁heartbeat	-12.5475
▁attendance	-12.5475
▁fled	-12.5475
▁Series	-12.5476
▁resemble	-12.5477
▁Arya	-12.5479
▁layout	-12.5479
▁Captain	-12.548
44	-12.548
▁Jill	-12.5482
▁rhetoric	-12.5485
▁Lady	-12.5488
▁ATM	-12.5488
rge	-12.549
seeing	-12.549
▁swelling	-12.549
▁hospitals	-12.5491
▁foil	-12.5493
▁respectable	-12.5494
-14	-12.5495
▁Move	-12.5496
▁reflected	-12.5496
▁scissors	-12.5496
▁Pull	-12.5497
▁MB	-12.55
▁obtained	-12.55
▁magnetic	-12.5502
▁sustained	-12.5503
▁rejecting	-12.5506
ory	-12.551
▁tourists	-12.5511
83	-12.5517
▁Talking	-12.5517
▁Israeli	-12.552
rock	-12.5521
venue	-12.5521
Yesterday	-12.5522
strong	-12.5522
dependent	-12.5522
clean	-12.5522
▁CE	-12.5526
▁meh	-12.5527
▁farms	-12.5534
▁HA	-12.5536
▁premium	-12.5536
kids	-12.5536
▁grenade	-12.5536
▁firearm	-12.5538
▁tp	-12.5539
▁shovel	-12.554
xce	-12.5541
▁Mode	-12.5541
▁vein	-12.5542
▁Atheists	-12.5546
▁maxed	-12.5547
mount	-12.5551
▁kite	-12.5553
▁clutch	-12.5556
2.5	-12.5556
▁strengthen	-12.5556
▁hats	-12.5557
RR	-12.5557
une	-12.5558
were	-12.5559
▁Tea	-12.5559
▁mechanisms	-12.556
▁selective	-12.5563
rag	-12.5565
▁Player	-12.5566
dated	-12.5567
dance	-12.5567
▁Greece	-12.5569
▁ejaculate	-12.5569
▁monetary	-12.5569
▁syrup	-12.5569
▁technologies	-12.5569
▁Akali	-12.5569
▁treadmill	-12.5569
▁HOWEVER	-12.5569
▁pledge	-12.5569
▁Months	-12.557
▁thanksgiving	-12.557
IGHT	-12.557
▁wrapping	-12.557
▁[10]	-12.557
▁stunning	-12.557
▁Center	-12.557
▁fireteam	-12.5571
▁Cait	-12.5572
▁monitoring	-12.5573
▁scattered	-12.5574
oe	-12.5576
▁marginal	-12.5576
▁fortunately	-12.5577
▁OFF	-12.5577
▁Enjoy	-12.5578
▁crunch	-12.5578
tax	-12.5579
▁drowned	-12.5579
past	-12.5579
▁refreshing	-12.558
▁bolted	-12.5582
▁Sword	-12.5584
▁soak	-12.5585
▁Hang	-12.5585
▁hills	-12.559
07	-12.5591
▁choked	-12.5591
oma	-12.5593
han	-12.5594
▁....	-12.5595
Sex	-12.5598
▁tossing	-12.5598
sleep	-12.56
▁bury	-12.5601
▁Si	-12.5602
▁woo	-12.5603
▁42	-12.5606
Talk	-12.5606
▁indie	-12.5607
▁Compare	-12.5608
rav	-12.5609
▁slows	-12.561
▁Ray	-12.5611
RAM	-12.5612
▁discovering	-12.5613
▁shifting	-12.5614
enter	-12.5614
ila	-12.5615
▁akin	-12.5616
▁antidepressants	-12.5616
lent	-12.5617
rib	-12.5618
together	-12.5619
green	-12.5619
broken	-12.5621
Nope	-12.5634
IM	-12.5639
▁clicks	-12.5639
▁dab	-12.5643
▁lovers	-12.5643
▁instruments	-12.5643
▁providers	-12.5644
▁$250	-12.5648
▁arrange	-12.565
▁prospects	-12.5651
mod	-12.5652
▁2.0	-12.5657
▁Pu	-12.5657
▁polish	-12.5658
▁SR	-12.5661
▁accounting	-12.5661
▁GAME	-12.5665
▁[25	-12.5666
▁Math	-12.5666
▁Beyond	-12.5667
▁ambitious	-12.5667
▁calendar	-12.5667
▁diabetes	-12.5667
▁genocide	-12.5667
▁googling	-12.5667
▁schizophrenia	-12.5667
▁synergy	-12.5667
▁varied	-12.5667
▁gluten	-12.5667
▁Minecraft	-12.5667
▁bankruptcy	-12.5667
▁handicapped	-12.5667
▁chime	-12.5667
▁jizz	-12.5667
▁petition	-12.5667
▁pension	-12.5667
▁adulthood	-12.5667
▁paralyzed	-12.5668
▁asshat	-12.5669
▁scr	-12.5669
▁validation	-12.567
▁biggie	-12.5671
▁Pete	-12.5672
▁rally	-12.5673
▁communist	-12.5673
▁evenings	-12.5674
▁collectively	-12.5674
▁snooped	-12.5676
▁hotter	-12.5676
▁whispered	-12.5676
▁unexpectedly	-12.5676
▁shitload	-12.5679
▁IUD	-12.568
▁psychotic	-12.5681
boo	-12.5681
aunt	-12.5682
▁coding	-12.5683
▁Group	-12.5684
▁LED	-12.569
▁flex	-12.5691
ami	-12.5691
▁independently	-12.5692
▁hinted	-12.5694
▁succeeded	-12.5696
▁Attack	-12.5697
▁portions	-12.5699
farm	-12.5699
▁Direct	-12.57
▁shaved	-12.5701
▁Corsair	-12.5703
▁Land	-12.5704
▁printing	-12.5707
lia	-12.571
uke	-12.5714
▁considers	-12.5715
Buy	-12.5717
▁offending	-12.5717
▁Prime	-12.5718
seriously	-12.5721
▁350	-12.5722
hz	-12.5723
▁ports	-12.5724
▁Wind	-12.5725
▁bombing	-12.5728
Al	-12.5729
▁Saw	-12.5731
▁muster	-12.5732
▁prop	-12.5732
itive	-12.5733
▁symptom	-12.5734
▁dieting	-12.5735
▁sinking	-12.5739
▁recommendation	-12.5739
▁snoop	-12.5743
▁unions	-12.5743
▁shitless	-12.5744
lies	-12.5745
▁trashed	-12.5745
aga	-12.5746
▁Says	-12.5748
lose	-12.5749
▁MD	-12.5751
▁Boo	-12.5753
▁gaps	-12.5757
▁technological	-12.576
▁cluster	-12.5764
▁publishers	-12.5764
▁Atlanta	-12.5765
▁Saudi	-12.5765
▁completion	-12.5765
▁gasoline	-12.5765
▁footsteps	-12.5765
▁homophobic	-12.5765
▁dignity	-12.5765
▁cyber	-12.5765
▁swept	-12.5765
▁critique	-12.5765
▁unbelievably	-12.5765
avi	-12.5765
▁counselling	-12.5765
▁prevalent	-12.5765
Going	-12.5765
▁lingerie	-12.5765
▁batshit	-12.5765
▁subtly	-12.5765
▁princess	-12.5766
▁statue	-12.5766
▁warlock	-12.5767
▁farts	-12.5768
▁seniors	-12.577
▁bribe	-12.5772
▁intimidated	-12.5773
▁fatty	-12.5774
▁Aegon	-12.5776
▁Coming	-12.5777
▁sneaky	-12.5778
▁recipes	-12.5778
▁populated	-12.5779
▁feeds	-12.578
▁entertained	-12.578
▁peek	-12.5782
▁demonstrated	-12.5785
▁sickness	-12.5786
▁HM	-12.5788
▁slo	-12.5789
ites	-12.5791
▁editor	-12.5798
▁kittens	-12.58
breaker	-12.5801
▁fundamentalist	-12.5807
▁:(",	-12.5811
TION	-12.5812
▁Heck	-12.5812
course	-12.5814
albeit	-12.5816
aggressive	-12.5816
middle	-12.5816
▁semesters	-12.5816
▁oddly	-12.5817
▁redirect	-12.5818
LF	-12.5818
Jo	-12.5823
▁drinker	-12.5829
▁Rick	-12.583
▁220	-12.5831
▁mesh	-12.5832
▁bathrooms	-12.5835
▁packet	-12.5836
Has	-12.5837
▁goof	-12.5837
▁Guardian	-12.5839
ished	-12.584
▁needles	-12.5843
▁indicates	-12.5843
fake	-12.5853
TL	-12.5854
▁cigs	-12.5858
▁matchups	-12.5861
▁WvW	-12.5864
▁butterfly	-12.5864
▁collision	-12.5864
▁grumpy	-12.5864
▁slippery	-12.5864
▁GRRM	-12.5864
▁overbearing	-12.5864
▁allergy	-12.5864
▁foreskin	-12.5864
▁Caitlyn	-12.5864
▁caloric	-12.5864
▁dopamine	-12.5864
▁rotten	-12.5864
▁battlefield	-12.5864
▁promoting	-12.5864
▁NEW	-12.5864
▁stripped	-12.5864
▁leverage	-12.5865
ancing	-12.5865
▁cigar	-12.5865
▁banner	-12.5866
▁starter	-12.5867
▁welcomed	-12.5867
uk	-12.5868
▁Nvidia	-12.5868
▁remake	-12.5868
▁assertive	-12.5868
▁treasure	-12.5868
▁occupation	-12.5869
▁Pain	-12.5869
▁tremendously	-12.5869
▁TL	-12.587
▁Rep	-12.587
▁china	-12.587
▁asset	-12.587
LESS	-12.5872
▁whale	-12.5872
▁terrorism	-12.5873
▁Focus	-12.5873
ggy	-12.5874
SK	-12.5874
▁Simple	-12.5875
EAT	-12.5876
▁37	-12.5878
▁Enter	-12.5881
▁EG	-12.5884
▁metro	-12.5885
▁zones	-12.5886
▁21,	-12.5888
▁GOT	-12.5891
UE	-12.5891
▁buses	-12.5892
▁relapsed	-12.5892
ively	-12.5892
▁[21	-12.5897
▁lining	-12.5897
▁ideally	-12.5898
▁Def	-12.5899
▁intensely	-12.59
▁pissy	-12.5902
▁Felt	-12.5903
▁BL	-12.591
del	-12.5914
▁scum	-12.5914
WHAT	-12.5916
similar	-12.5916
Those	-12.5916
▁booted	-12.5917
;\	-12.5918
▁Hit	-12.5919
jerk	-12.5921
▁Roth	-12.5921
CD	-12.5923
Uh	-12.5924
LP	-12.5927
Part	-12.5927
▁restriction	-12.5936
96	-12.594
Friends	-12.5943
▁(7	-12.5944
ELL	-12.5944
friendly	-12.5945
hat	-12.5945
▁Sig	-12.5952
char	-12.5954
▁buds	-12.5954
▁Wood	-12.5955
pic	-12.5957
▁invalid	-12.5961
▁therapists	-12.5962
SC	-12.5962
▁prefers	-12.5962
▁acceleration	-12.5964
▁anecdotal	-12.5964
▁grudge	-12.5964
▁inseparable	-12.5964
▁platinum	-12.5964
▁predicament	-12.5964
▁reliant	-12.5964
▁shenanigans	-12.5964
▁submissive	-12.5964
▁twat	-12.5964
▁ABOUT	-12.5964
▁surreal	-12.5964
▁temptation	-12.5964
▁Brown	-12.5964
▁MAKE	-12.5964
▁CMV	-12.5964
▁bugged	-12.5965
▁babysitter	-12.5965
blow	-12.5965
▁quiz	-12.5965
▁County	-12.5965
▁neurons	-12.5966
▁frost	-12.5967
[...]
